{
  "version": "1.0",
  "truncation": null,
  "padding": null,
  "added_tokens": [
    {
      "id": 0,
      "content": "<s>",
      "single_word": false,
      "lstrip": false,
      "rstrip": false,
      "normalized": false,
      "special": true
    },
    {
      "id": 1,
      "content": "<pad>",
      "single_word": false,
      "lstrip": false,
      "rstrip": false,
      "normalized": false,
      "special": true
    },
    {
      "id": 2,
      "content": "</s>",
      "single_word": false,
      "lstrip": false,
      "rstrip": false,
      "normalized": false,
      "special": true
    },
    {
      "id": 3,
      "content": "<unk>",
      "single_word": false,
      "lstrip": false,
      "rstrip": false,
      "normalized": false,
      "special": true
    }
  ],
  "normalizer": null,
  "pre_tokenizer": {
    "type": "ByteLevel",
    "add_prefix_space": false,
    "trim_offsets": true,
    "use_regex": true
  },
  "post_processor": {
    "type": "TemplateProcessing",
    "single": [
      {
        "Sequence": {
          "id": "A",
          "type_id": 0
        }
      }
    ],
    "pair": [
      {
        "Sequence": {
          "id": "A",
          "type_id": 0
        }
      },
      {
        "Sequence": {
          "id": "B",
          "type_id": 1
        }
      }
    ],
    "special_tokens": {
      "</s>": {
        "id": "</s>",
        "ids": [
          2
        ],
        "tokens": [
          "</s>"
        ]
      },
      "<pad>": {
        "id": "<pad>",
        "ids": [
          1
        ],
        "tokens": [
          "<pad>"
        ]
      },
      "<s>": {
        "id": "<s>",
        "ids": [
          0
        ],
        "tokens": [
          "<s>"
        ]
      },
      "<unk>": {
        "id": "<unk>",
        "ids": [
          3
        ],
        "tokens": [
          "<unk>"
        ]
      }
    }
  },
  "decoder": {
    "type": "ByteLevel",
    "add_prefix_space": true,
    "trim_offsets": true,
    "use_regex": true
  },
  "model": {
    "type": "BPE",
    "dropout": null,
    "unk_token": null,
    "continuing_subword_prefix": null,
    "end_of_word_suffix": null,
    "fuse_unk": false,
    "byte_fallback": false,
    "ignore_merges": false,
    "vocab": {
      "<s>": 0,
      "<pad>": 1,
      "</s>": 2,
      "<unk>": 3,
      "!": 4,
      "\"": 5,
      "#": 6,
      "$": 7,
      "%": 8,
      "&": 9,
      "'": 10,
      "(": 11,
      ")": 12,
      "*": 13,
      "+": 14,
      ",": 15,
      "-": 16,
      ".": 17,
      "/": 18,
      "0": 19,
      "1": 20,
      "2": 21,
      "3": 22,
      "4": 23,
      "5": 24,
      "6": 25,
      "7": 26,
      "8": 27,
      "9": 28,
      ":": 29,
      ";": 30,
      "<": 31,
      "=": 32,
      ">": 33,
      "?": 34,
      "@": 35,
      "A": 36,
      "B": 37,
      "C": 38,
      "D": 39,
      "E": 40,
      "F": 41,
      "G": 42,
      "H": 43,
      "I": 44,
      "J": 45,
      "K": 46,
      "L": 47,
      "M": 48,
      "N": 49,
      "O": 50,
      "P": 51,
      "Q": 52,
      "R": 53,
      "S": 54,
      "T": 55,
      "U": 56,
      "V": 57,
      "W": 58,
      "X": 59,
      "Y": 60,
      "Z": 61,
      "[": 62,
      "\\": 63,
      "]": 64,
      "^": 65,
      "_": 66,
      "`": 67,
      "a": 68,
      "b": 69,
      "c": 70,
      "d": 71,
      "e": 72,
      "f": 73,
      "g": 74,
      "h": 75,
      "i": 76,
      "j": 77,
      "k": 78,
      "l": 79,
      "m": 80,
      "n": 81,
      "o": 82,
      "p": 83,
      "q": 84,
      "r": 85,
      "s": 86,
      "t": 87,
      "u": 88,
      "v": 89,
      "w": 90,
      "x": 91,
      "y": 92,
      "z": 93,
      "{": 94,
      "|": 95,
      "}": 96,
      "~": 97,
      "¡": 98,
      "¢": 99,
      "£": 100,
      "¤": 101,
      "¥": 102,
      "¦": 103,
      "§": 104,
      "¨": 105,
      "©": 106,
      "ª": 107,
      "«": 108,
      "¬": 109,
      "®": 110,
      "¯": 111,
      "°": 112,
      "±": 113,
      "²": 114,
      "³": 115,
      "´": 116,
      "µ": 117,
      "¶": 118,
      "·": 119,
      "¸": 120,
      "¹": 121,
      "º": 122,
      "»": 123,
      "¼": 124,
      "½": 125,
      "¾": 126,
      "¿": 127,
      "À": 128,
      "Á": 129,
      "Â": 130,
      "Ã": 131,
      "Ä": 132,
      "Å": 133,
      "Æ": 134,
      "Ç": 135,
      "È": 136,
      "É": 137,
      "Ê": 138,
      "Ë": 139,
      "Ì": 140,
      "Í": 141,
      "Î": 142,
      "Ï": 143,
      "Ð": 144,
      "Ñ": 145,
      "Ò": 146,
      "Ó": 147,
      "Ô": 148,
      "Õ": 149,
      "Ö": 150,
      "×": 151,
      "Ø": 152,
      "Ù": 153,
      "Ú": 154,
      "Û": 155,
      "Ü": 156,
      "Ý": 157,
      "Þ": 158,
      "ß": 159,
      "à": 160,
      "á": 161,
      "â": 162,
      "ã": 163,
      "ä": 164,
      "å": 165,
      "æ": 166,
      "ç": 167,
      "è": 168,
      "é": 169,
      "ê": 170,
      "ë": 171,
      "ì": 172,
      "í": 173,
      "î": 174,
      "ï": 175,
      "ð": 176,
      "ñ": 177,
      "ò": 178,
      "ó": 179,
      "ô": 180,
      "õ": 181,
      "ö": 182,
      "÷": 183,
      "ø": 184,
      "ù": 185,
      "ú": 186,
      "û": 187,
      "ü": 188,
      "ý": 189,
      "þ": 190,
      "ÿ": 191,
      "Ā": 192,
      "ā": 193,
      "Ă": 194,
      "ă": 195,
      "Ą": 196,
      "ą": 197,
      "Ć": 198,
      "ć": 199,
      "Ĉ": 200,
      "ĉ": 201,
      "Ċ": 202,
      "ċ": 203,
      "Č": 204,
      "č": 205,
      "Ď": 206,
      "ď": 207,
      "Đ": 208,
      "đ": 209,
      "Ē": 210,
      "ē": 211,
      "Ĕ": 212,
      "ĕ": 213,
      "Ė": 214,
      "ė": 215,
      "Ę": 216,
      "ę": 217,
      "Ě": 218,
      "ě": 219,
      "Ĝ": 220,
      "ĝ": 221,
      "Ğ": 222,
      "ğ": 223,
      "Ġ": 224,
      "ġ": 225,
      "Ģ": 226,
      "ģ": 227,
      "Ĥ": 228,
      "ĥ": 229,
      "Ħ": 230,
      "ħ": 231,
      "Ĩ": 232,
      "ĩ": 233,
      "Ī": 234,
      "ī": 235,
      "Ĭ": 236,
      "ĭ": 237,
      "Į": 238,
      "į": 239,
      "İ": 240,
      "ı": 241,
      "Ĳ": 242,
      "ĳ": 243,
      "Ĵ": 244,
      "ĵ": 245,
      "Ķ": 246,
      "ķ": 247,
      "ĸ": 248,
      "Ĺ": 249,
      "ĺ": 250,
      "Ļ": 251,
      "ļ": 252,
      "Ľ": 253,
      "ľ": 254,
      "Ŀ": 255,
      "ŀ": 256,
      "Ł": 257,
      "ł": 258,
      "Ń": 259,
      "in": 260,
      "Ġ\"": 261,
      "Ġa": 262,
      "Ġt": 263,
      "on": 264,
      "ut": 265,
      "\":": 266,
      "er": 267,
      "at": 268,
      "Ġc": 269,
      "re": 270,
      "ing": 271,
      "Ġs": 272,
      "put": 273,
      "or": 274,
      "en": 275,
      "\",": 276,
      "Ġth": 277,
      "an": 278,
      "ion": 279,
      "le": 280,
      "de": 281,
      "is": 282,
      "Ġp": 283,
      "Ġf": 284,
      "it": 285,
      "ĠĠ": 286,
      "Ġin": 287,
      "ou": 288,
      "es": 289,
      "al": 290,
      "Ġan": 291,
      "pe": 292,
      "Ġthe": 293,
      "Ġto": 294,
      "out": 295,
      "Ġm": 296,
      "ct": 297,
      "Ġand": 298,
      "Ġw": 299,
      "ty": 300,
      "Ġo": 301,
      "output": 302,
      "input": 303,
      "type": 304,
      "\"}": 305,
      "ow": 306,
      "{\"": 307,
      "čĊ": 308,
      "ro": 309,
      "ar": 310,
      "Ġb": 311,
      "Ġre": 312,
      "im": 313,
      "ers": 314,
      "?\",": 315,
      "ation": 316,
      "ent": 317,
      "ic": 318,
      "om": 319,
      "ge": 320,
      "Ġy": 321,
      "Ġyou": 322,
      "ed": 323,
      "Ġof": 324,
      "el": 325,
      ".\"}": 326,
      "us": 327,
      "Ġd": 328,
      "Ġis": 329,
      "Ġe": 330,
      "Ġh": 331,
      "Ġl": 332,
      "ch": 333,
      "ode": 334,
      "th": 335,
      "ce": 336,
      "Ġn": 337,
      "Ġcan": 338,
      "ve": 339,
      "Ġfor": 340,
      "as": 341,
      "Ġpro": 342,
      "Ġus": 343,
      "Ġim": 344,
      "ĠI": 345,
      "onv": 346,
      "un": 347,
      "vi": 348,
      "Ġde": 349,
      "ur": 350,
      "Wh": 351,
      "ra": 352,
      "ĠĠĠ": 353,
      "Ġcom": 354,
      "et": 355,
      "ul": 356,
      "onvers": 357,
      "onversation": 358,
      "kn": 359,
      "ol": 360,
      "led": 361,
      "know": 362,
      "Ġg": 363,
      "if": 364,
      "Ġimp": 365,
      "conversation": 366,
      "What": 367,
      "How": 368,
      "ith": 369,
      "knowled": 370,
      "ate": 371,
      "knowledge": 372,
      "Ġcon": 373,
      "ction": 374,
      "code": 375,
      "ĠP": 376,
      "il": 377,
      "Ġon": 378,
      "ay": 379,
      "Ġst": 380,
      "ke": 381,
      "age": 382,
      "ment": 383,
      "pt": 384,
      "st": 385,
      "yth": 386,
      "Ġex": 387,
      "ort": 388,
      "ist": 389,
      "ure": 390,
      "ython": 391,
      "ĠPython": 392,
      "Ġwith": 393,
      "Ġ'": 394,
      "ly": 395,
      "Ġor": 396,
      "ess": 397,
      "ect": 398,
      "ig": 399,
      "am": 400,
      "di": 401,
      "Ġle": 402,
      "um": 403,
      "Ġint": 404,
      "Ġthat": 405,
      "Ġte": 406,
      "Ġal": 407,
      "ial": 408,
      "ence": 409,
      "Ġas": 410,
      "Ġyour": 411,
      ":\\": 412,
      "ple": 413,
      "and": 414,
      "Ġen": 415,
      "ab": 416,
      "Ġma": 417,
      "qu": 418,
      "ver": 419,
      "ri": 420,
      "Ġwh": 421,
      "ĠA": 422,
      "ot": 423,
      "Ġbe": 424,
      "ive": 425,
      "vide": 426,
      "og": 427,
      "Ġ=": 428,
      "Ġit": 429,
      "Ġme": 430,
      "ome": 431,
      "od": 432,
      "iz": 433,
      "Ġv": 434,
      "Ġare": 435,
      "arn": 436,
      "ac": 437,
      "Ġlearn": 438,
      "ity": 439,
      "est": 440,
      "Ġsu": 441,
      "'s": 442,
      "ĠĠĠĠ": 443,
      "Ġfe": 444,
      "Ġusing": 445,
      "rit": 446,
      "ad": 447,
      "Ġcomm": 448,
      "Ġun": 449,
      "act": 450,
      "id": 451,
      "urn": 452,
      "iv": 453,
      "ell": 454,
      "res": 455,
      "orm": 456,
      "Ġspe": 457,
      "pl": 458,
      "udi": 459,
      "ine": 460,
      "Ġret": 461,
      "ĠIt": 462,
      "king": 463,
      "oun": 464,
      "unction": 465,
      "em": 466,
      "Ġch": 467,
      "Th": 468,
      "Ġfunction": 469,
      "Ġreturn": 470,
      "ance": 471,
      "se": 472,
      "ions": 473,
      "Ġby": 474,
      "Ġdat": 475,
      "ip": 476,
      "cess": 477,
      ")\\": 478,
      "ant": 479,
      "form": 480,
      "Ġlearning": 481,
      "Ġimpro": 482,
      "Ġrec": 483,
      "per": 484,
      "Ġdo": 485,
      "ual": 486,
      "Ġli": 487,
      "rom": 488,
      "ain": 489,
      "Ġaudi": 490,
      ".\",": 491,
      "ere": 492,
      "ject": 493,
      "Ġse": 494,
      "fer": 495,
      "Can": 496,
      "Ġwe": 497,
      "ir": 498,
      "ks": 499,
      "all": 500,
      "ĠĠĠĠĠĠĠ": 501,
      "Ġdata": 502,
      "ies": 503,
      "xt": 504,
      "Ġhel": 505,
      "Ġuse": 506,
      "Ġhelp": 507,
      "Ġca": 508,
      "Ġwor": 509,
      "You": 510,
      "gu": 511,
      "Ġmo": 512,
      "Ġimprove": 513,
      "Ġinter": 514,
      "Ġab": 515,
      "video": 516,
      "ru": 517,
      "int": 518,
      "Ġne": 519,
      "ans": 520,
      "Ġinc": 521,
      "Ġcont": 522,
      "rite": 523,
      "Ġsome": 524,
      "ld": 525,
      "Ġsy": 526,
      "odel": 527,
      "Ġ\\": 528,
      "ample": 529,
      "ice": 530,
      "oc": 531,
      "Ġcre": 532,
      "Ġfrom": 533,
      "):\\": 534,
      "Ġlist": 535,
      "lu": 536,
      "umb": 537,
      "able": 538,
      "Ġar": 539,
      "def": 540,
      "Ġtr": 541,
      "chn": 542,
      "Ġtechn": 543,
      "ag": 544,
      "actor": 545,
      "Ġvideo": 546,
      "igh": 547,
      "ting": 548,
      "end": 549,
      "Ġimport": 550,
      "ill": 551,
      "Ġac": 552,
      "ific": 553,
      "ack": 554,
      "Write": 555,
      "ter": 556,
      "Ġap": 557,
      "Ġha": 558,
      "op": 559,
      "Ġcode": 560,
      "Ġgo": 561,
      "Ġaudio": 562,
      "ff": 563,
      "ition": 564,
      "Ġmy": 565,
      "are": 566,
      "Ġfactor": 567,
      "ogn": 568,
      "Ġmodel": 569,
      "ime": 570,
      "Ġres": 571,
      "ech": 572,
      "Ġabout": 573,
      "Ġcal": 574,
      "Ġsh": 575,
      "ĠS": 576,
      "ating": 577,
      "ound": 578,
      "Ġr": 579,
      "bject": 580,
      "ne": 581,
      "ind": 582,
      "ram": 583,
      "Ġexample": 584,
      "Ġ(": 585,
      "ract": 586,
      "olv": 587,
      "Ġcommon": 588,
      "Ġund": 589,
      "Ġway": 590,
      "etw": 591,
      "Ġlike": 592,
      "Ġfactorial": 593,
      "te": 594,
      "ach": 595,
      "cul": 596,
      "angu": 597,
      "erst": 598,
      "Ġcomput": 599,
      "erstand": 600,
      "ep": 601,
      "ult": 602,
      "ble": 603,
      "ĠTh": 604,
      "Ġpl": 605,
      "cri": 606,
      "lement": 607,
      "ption": 608,
      "Ġpre": 609,
      "Ġprovide": 610,
      "low": 611,
      "Ġad": 612,
      "Ġdif": 613,
      "rain": 614,
      "ress": 615,
      "Ġcalcul": 616,
      "Ġunderstand": 617,
      "Ġeff": 618,
      "Ġnumb": 619,
      "'m": 620,
      "ize": 621,
      "anguage": 622,
      "ms": 623,
      "Ġinclu": 624,
      "li": 625,
      "Ġtext": 626,
      "os": 627,
      "ations": 628,
      ")\"}": 629,
      "ĠF": 630,
      "Ġprog": 631,
      "Ġprocess": 632,
      "ile": 633,
      "Ġused": 634,
      "ign": 635,
      "so": 636,
      "ould": 637,
      "art": 638,
      "Ġ1": 639,
      "Ġat": 640,
      "Ġif": 641,
      "ord": 642,
      "ther": 643,
      "Ġfeel": 644,
      "Ġinclude": 645,
      "our": 646,
      "iqu": 647,
      "Ġover": 648,
      "ely": 649,
      "Ġdiffer": 650,
      "Ġinv": 651,
      "port": 652,
      "Ġqu": 653,
      "stem": 654,
      "ory": 655,
      "Ġem": 656,
      "Ġlanguage": 657,
      "Ġcl": 658,
      "Ġdev": 659,
      "Ġspeech": 660,
      "Ġhave": 661,
      "?\"}": 662,
      "ous": 663,
      "Ġmach": 664,
      "Ġsuch": 665,
      "Ġsystem": 666,
      "gh": 667,
      "ath": 668,
      "ical": 669,
      "ural": 670,
      "Ġimplement": 671,
      "Ġmore": 672,
      "One": 673,
      "back": 674,
      "Ġtime": 675,
      "Ġpract": 676,
      "ough": 677,
      "Ġpers": 678,
      "Ġtheir": 679,
      "edback": 680,
      "Ġ\\\"": 681,
      "ight": 682,
      "one": 683,
      "ust": 684,
      "ular": 685,
      "Ġprogram": 686,
      "gor": 687,
      "Ġdes": 688,
      "Ġmake": 689,
      "',": 690,
      "Ġke": 691,
      "elf": 692,
      "Ġvis": 693,
      "Ġcalculate": 694,
      "ert": 695,
      "Ġalso": 696,
      "ĠAI": 697,
      "ful": 698,
      "Ġimportant": 699,
      "Ġper": 700,
      "ass": 701,
      "Ġtechniqu": 702,
      "gorith": 703,
      "ings": 704,
      "Ġfeedback": 705,
      "Sure": 706,
      "Ġtas": 707,
      "Ġsort": 708,
      "Ġimage": 709,
      "olog": 710,
      "Ġalgorith": 711,
      "Ġrecogn": 712,
      "ec": 713,
      "Ġhum": 714,
      "aking": 715,
      "ener": 716,
      "ide": 717,
      "Ġman": 718,
      "Ġev": 719,
      "Ġeffect": 720,
      "ĠR": 721,
      "Ġsim": 722,
      "ility": 723,
      "Ġtrans": 724,
      "ents": 725,
      "olves": 726,
      "('": 727,
      "ake": 728,
      "ns": 729,
      "ite": 730,
      "du": 731,
      "Ġ0": 732,
      "ount": 733,
      "Ġsc": 734,
      "Ġobject": 735,
      "aly": 736,
      "vie": 737,
      "ures": 738,
      "Ġinto": 739,
      "Ġweb": 740,
      "Ġacc": 741,
      "Ġmachine": 742,
      "Ġpr": 743,
      "Ġdis": 744,
      "Ġcreate": 745,
      "Ġinvolves": 746,
      "ĠC": 747,
      "eng": 748,
      "ices": 749,
      "ication": 750,
      "ie": 751,
      "Ġset": 752,
      "Ġwhere": 753,
      "up": 754,
      "Ġinform": 755,
      "cas": 756,
      "vid": 757,
      "ary": 758,
      "vir": 759,
      "ĠL": 760,
      "ens": 761,
      "Some": 762,
      "ail": 763,
      "een": 764,
      "po": 765,
      "Ġbre": 766,
      "Ġprogramm": 767,
      "ĠT": 768,
      "ates": 769,
      "cept": 770,
      "Ġeng": 771,
      "Ġspec": 772,
      "Ġnumber": 773,
      "Ġanaly": 774,
      "arch": 775,
      "Ġbetw": 776,
      "Ġcommun": 777,
      "The": 778,
      "Ġperform": 779,
      "Ġbetween": 780,
      "ak": 781,
      "vis": 782,
      "ĠHow": 783,
      "ong": 784,
      "Ġgener": 785,
      "ments": 786,
      "Ġkey": 787,
      "cis": 788,
      "Ġsk": 789,
      "ional": 790,
      "Ġhand": 791,
      "Ġtasks": 792,
      "ds": 793,
      "ry": 794,
      "ĠM": 795,
      "br": 796,
      "pon": 797,
      "uring": 798,
      "ĠH": 799,
      "Ġel": 800,
      "Ġcol": 801,
      "Ġstr": 802,
      "Ġcap": 803,
      "Ġtechniques": 804,
      "()": 805,
      "ore": 806,
      "Ġtrain": 807,
      "Ġstory": 808,
      "Ġvisual": 809,
      "Ġhuman": 810,
      "view": 811,
      "Ġup": 812,
      "ctive": 813,
      "ips": 814,
      "Ġinformation": 815,
      "ctions": 816,
      "Ġexpl": 817,
      "ĠJ": 818,
      "Ġrem": 819,
      "Ġass": 820,
      "ages": 821,
      "ills": 822,
      "enc": 823,
      "Ġfind": 824,
      "Ġproble": 825,
      "Ġdevel": 826,
      "Ġsm": 827,
      "Ġskills": 828,
      "Ġ*": 829,
      "ene": 830,
      "ish": 831,
      "Ġreg": 832,
      "Ġreal": 833,
      "Ġhow": 834,
      "Ġwork": 835,
      "av": 836,
      "rough": 837,
      "Ġpart": 838,
      "Ġcontent": 839,
      "Ġperson": 840,
      "ify": 841,
      "Ġallow": 842,
      "Ġdifferent": 843,
      "ology": 844,
      "Ġrecognition": 845,
      "Ġspecific": 846,
      "ree": 847,
      "ors": 848,
      "Ġthem": 849,
      "Ġlibr": 850,
      "Ġsound": 851,
      "Ġthrough": 852,
      "pervis": 853,
      "Ġso": 854,
      "Ġbas": 855,
      "Ġnot": 856,
      "olut": 857,
      "Ġexper": 858,
      "Ġwhen": 859,
      "ellig": 860,
      "tection": 861,
      "pervised": 862,
      "tect": 863,
      "Ġconf": 864,
      "Ġintellig": 865,
      "ocus": 866,
      "Ġelse": 867,
      "ft": 868,
      "ia": 869,
      "ient": 870,
      "ĠE": 871,
      "als": 872,
      "ari": 873,
      "ics": 874,
      "Ġdetection": 875,
      "Ġconcept": 876,
      "Ġintelligence": 877,
      "pro": 878,
      "Ġother": 879,
      "Ġbu": 880,
      "Ġcomputer": 881,
      "\\\":": 882,
      "Ġconv": 883,
      "ctiv": 884,
      "Ġhe": 885,
      "ident": 886,
      "Ġchall": 887,
      "Ġdevelop": 888,
      "ire": 889,
      "pre": 890,
      "Ġro": 891,
      "Ġpo": 892,
      "Ġbest": 893,
      "cript": 894,
      "It": 895,
      "ib": 896,
      "pen": 897,
      "erv": 898,
      "ital": 899,
      "Ġany": 900,
      "Ġproject": 901,
      "etwor": 902,
      "Ġ2": 903,
      "Ġsum": 904,
      "lect": 905,
      "Ġcomple": 906,
      "Ġits": 907,
      "Ġvari": 908,
      "Ġhelps": 909,
      "Ġlisten": 910,
      "Ġsystems": 911,
      "To": 912,
      "nth": 913,
      "tific": 914,
      "ĠB": 915,
      "ĠYou": 916,
      "alu": 917,
      "Ġwill": 918,
      "ame": 919,
      "Ġmeet": 920,
      "resent": 921,
      "Ġsearch": 922,
      "Ġcommunication": 923,
      "tificial": 924,
      "ace": 925,
      "day": 926,
      "fit": 927,
      "Ġaut": 928,
      "ich": 929,
      "Ġprogramming": 930,
      "Ġchalleng": 931,
      "oo": 932,
      "ities": 933,
      "Ġgood": 934,
      "nthes": 935,
      "ard": 936,
      "Ġref": 937,
      "import": 938,
      "Ġdist": 939,
      "Ġnetwor": 940,
      "Ġens": 941,
      "ization": 942,
      "Ġaudience": 943,
      "Ġunderstanding": 944,
      "Ġtraining": 945,
      "Ġexperi": 946,
      "ap": 947,
      "ated": 948,
      "Ġpat": 949,
      "Ġpri": 950,
      "Ġfocus": 951,
      "Ġwas": 952,
      "Ġgre": 953,
      "Ġenh": 954,
      "izing": 955,
      "ling": 956,
      "su": 957,
      "ving": 958,
      "Ġout": 959,
      "Ġwell": 960,
      "Ġprodu": 961,
      "Ġwhile": 962,
      "Ġ==": 963,
      "Ġappl": 964,
      "Ġrespon": 965,
      "Ġsetting": 966,
      "ng": 967,
      "Ġty": 968,
      "Ġsign": 969,
      "Ġdeep": 970,
      "Ġadd": 971,
      "Ġco": 972,
      "Ġone": 973,
      "Ġnew": 974,
      "Ġaccess": 975,
      "Ġprint": 976,
      "Ġcapital": 977,
      "nthesis": 978,
      "but": 979,
      "Ġ+": 980,
      "les": 981,
      "Ġtoday": 982,
      "Ġread": 983,
      "Ġdecis": 984,
      "Ġtechnology": 985,
      "Ġalgorithms": 986,
      "bot": 987,
      "lab": 988,
      "line": 989,
      "word": 990,
      "Ġvir": 991,
      "Ġcle": 992,
      "Ġnat": 993,
      "ase": 994,
      "Ġcons": 995,
      "Ġproblem": 996,
      "Ġbased": 997,
      "cial": 998,
      "tual": 999,
      "ware": 1000,
      "Ġ[": 1001,
      "Ġj": 1002,
      "Ġident": 1003,
      "ative": 1004,
      "Ġmult": 1005,
      "Ġbut": 1006,
      "iment": 1007,
      "use": 1008,
      "Ġgr": 1009,
      "Ġartificial": 1010,
      "Ġperformance": 1011,
      "='": 1012,
      "Ġsent": 1013,
      "pet": 1014,
      "Ġduring": 1015,
      "Ġhigh": 1016,
      "Ġfeeling": 1017,
      "Ġwebs": 1018,
      "avi": 1019,
      "ber": 1020,
      "Ġtra": 1021,
      "Ġcall": 1022,
      "Ġthis": 1023,
      "anc": 1024,
      "ange": 1025,
      "Ġpresent": 1026,
      "Ġwrit": 1027,
      "Ġform": 1028,
      "Ġshould": 1029,
      "Ġpractice": 1030,
      "Ġdisc": 1031,
      "\\\",": 1032,
      "ph": 1033,
      "itive": 1034,
      "Ġthey": 1035,
      "own": 1036,
      "Ġrel": 1037,
      "omm": 1038,
      "cription": 1039,
      "Ġsmall": 1040,
      "Ġcomplex": 1041,
      "Ġvirtual": 1042,
      "),": 1043,
      "pport": 1044,
      "ts": 1045,
      "Ġcv": 1046,
      "Ġthan": 1047,
      "Ġmem": 1048,
      "ĠThis": 1049,
      "Ġexplain": 1050,
      "Ġed": 1051,
      "Ġam": 1052,
      "Ġself": 1053,
      "oud": 1054,
      "ese": 1055,
      "ality": 1056,
      "Ġstru": 1057,
      "Ġwhich": 1058,
      "acy": 1059,
      "olving": 1060,
      "Ġnumbers": 1061,
      "Ġquest": 1062,
      "Ġalgorithm": 1063,
      "Ġeffective": 1064,
      "Ġpatter": 1065,
      "')\\": 1066,
      "tell": 1067,
      "Ġ<": 1068,
      "Ġtips": 1069,
      "Ġopt": 1070,
      "Ġcomp": 1071,
      "str": 1072,
      "Ġcomputing": 1073,
      "Ġsoft": 1074,
      "ca": 1075,
      "ci": 1076,
      "sis": 1077,
      "ye": 1078,
      "Ġph": 1079,
      "Ġpop": 1080,
      "Ġinput": 1081,
      "Ġmess": 1082,
      "Ġuser": 1083,
      "ĠIn": 1084,
      "Ġwithout": 1085,
      "andom": 1086,
      "ĠAn": 1087,
      "Ġfeat": 1088,
      "Ġanalysis": 1089,
      "Ġpartic": 1090,
      "Ġnatural": 1091,
      "Ġpatterns": 1092,
      "telling": 1093,
      "oice": 1094,
      "Ġtake": 1095,
      "Ġthin": 1096,
      "Ġindi": 1097,
      "arge": 1098,
      "Ġdown": 1099,
      "very": 1100,
      "udio": 1101,
      "aging": 1102,
      "Ġgoals": 1103,
      "Ġatt": 1104,
      "Ġmanage": 1105,
      "Ġsimple": 1106,
      "'t": 1107,
      "ding": 1108,
      "vers": 1109,
      "ĠG": 1110,
      "Ġknow": 1111,
      "ines": 1112,
      "Ġsr": 1113,
      "Ġpos": 1114,
      "Ġtool": 1115,
      "thod": 1116,
      "Ġimages": 1117,
      "ized": 1118,
      "ively": 1119,
      "ello": 1120,
      "Ġcaption": 1121,
      "Ġmodels": 1122,
      "Ġplay": 1123,
      "Ġassist": 1124,
      "pr": 1125,
      "ĠO": 1126,
      "Ġconversation": 1127,
      "Ġpe": 1128,
      "Ġdetect": 1129,
      "Ġgiv": 1130,
      "Ġteam": 1131,
      "Ġmaint": 1132,
      "ribut": 1133,
      "Ġsynthesis": 1134,
      "Ġcreating": 1135,
      "Ġprocessing": 1136,
      "vidual": 1137,
      "Ġhandle": 1138,
      "Ġstorytelling": 1139,
      "Ġmeeting": 1140,
      "Ġwebsite": 1141,
      "Ġsoftware": 1142,
      "Ġindividual": 1143,
      "Ġmaintain": 1144,
      "mar": 1145,
      "nc": 1146,
      "ded": 1147,
      "Ġpur": 1148,
      "Ġpol": 1149,
      "Ġfac": 1150,
      "Ġhas": 1151,
      "Ġprof": 1152,
      "Ġstay": 1153,
      "stru": 1154,
      "Ġall": 1155,
      "Ġpersonal": 1156,
      "Ġchallenges": 1157,
      "Ġexperience": 1158,
      "()\\": 1159,
      "cur": 1160,
      "ken": 1161,
      "onom": 1162,
      "pect": 1163,
      "Why": 1164,
      "Ġmethod": 1165,
      "Ġadv": 1166,
      "ĠFor": 1167,
      "olution": 1168,
      "Ġidentify": 1169,
      "Ġcaptioning": 1170,
      "ey": 1171,
      "nt": 1172,
      "Ġag": 1173,
      "Ġno": 1174,
      "essional": 1175,
      "verage": 1176,
      "odal": 1177,
      "Ġshow": 1178,
      "Ġdifference": 1179,
      "Ġemot": 1180,
      "ertain": 1181,
      "Ġenhance": 1182,
      "Ġdecisions": 1183,
      "Ġprofessional": 1184,
      "dition": 1185,
      "wh": 1186,
      "Ġ#": 1187,
      "Ġsa": 1188,
      "ally": 1189,
      "Ġbene": 1190,
      "Ġlo": 1191,
      "Ġdeb": 1192,
      "Ġenc": 1193,
      "Ġbeing": 1194,
      "Ġsupport": 1195,
      "Ġsee": 1196,
      "Ġregular": 1197,
      "rance": 1198,
      "time": 1199,
      "ĠD": 1200,
      "Ġsn": 1201,
      "Ġserv": 1202,
      "Ġthen": 1203,
      "ang": 1204,
      "ise": 1205,
      "peech": 1206,
      "aries": 1207,
      "Ġext": 1208,
      "ĠAd": 1209,
      "Ġmean": 1210,
      "ody": 1211,
      "Ġcommand": 1212,
      "Ġworld": 1213,
      "Ġneural": 1214,
      "Ġarr": 1215,
      "Ġtry": 1216,
      "ĠFrance": 1217,
      "Ġsorted": 1218,
      "Ġobjects": 1219,
      "Ġengage": 1220,
      "Ġallows": 1221,
      "Ġbuil": 1222,
      "Ġdevelopment": 1223,
      "eled": 1224,
      "numb": 1225,
      "ĠW": 1226,
      "Ġactiv": 1227,
      "ering": 1228,
      "arr": 1229,
      "image": 1230,
      "Ġvalu": 1231,
      "ippet": 1232,
      "Ġrecomm": 1233,
      "Ġappro": 1234,
      "Ġlistening": 1235,
      "Ġrefers": 1236,
      "Ġparticip": 1237,
      "Ġsnippet": 1238,
      "be": 1239,
      "gg": 1240,
      "gan": 1241,
      "nf": 1242,
      "path": 1243,
      "ror": 1244,
      "sh": 1245,
      "Ġ-": 1246,
      "Ġtw": 1247,
      "Ġsay": 1248,
      "Ġeach": 1249,
      "Ġwhat": 1250,
      "Ġvoice": 1251,
      "Ġpredi": 1252,
      "Ġconvert": 1253,
      "Ġpoint": 1254,
      "ibility": 1255,
      "Ġpresentation": 1256,
      "Ġoptim": 1257,
      "Ġrecommend": 1258,
      "com": 1259,
      "tal": 1260,
      "ud": 1261,
      "Ġav": 1262,
      "Ġpar": 1263,
      "rol": 1264,
      "ential": 1265,
      "ray": 1266,
      "ptions": 1267,
      "Ġorgan": 1268,
      "Ġlead": 1269,
      "ability": 1270,
      "ants": 1271,
      "Ġclass": 1272,
      "Ġclear": 1273,
      "Ġpopular": 1274,
      "ext": 1275,
      "lish": 1276,
      "oog": 1277,
      "self": 1278,
      "ule": 1279,
      "Ġ/": 1280,
      "Ġcor": 1281,
      "Ġcru": 1282,
      "Ġspo": 1283,
      "cture": 1284,
      "icro": 1285,
      "ications": 1286,
      "Ġusers": 1287,
      "verb": 1288,
      "Ġdesign": 1289,
      "Ġevent": 1290,
      "Ġlibrary": 1291,
      "Ġlibraries": 1292,
      "Ġvarious": 1293,
      "Ġensure": 1294,
      "Ġsmaller": 1295,
      "Ġcrucial": 1296,
      "!\"}": 1297,
      "ause": 1298,
      "list": 1299,
      "ĠN": 1300,
      "Ġreview": 1301,
      "imodal": 1302,
      "ched": 1303,
      "Ġdeli": 1304,
      "Ġexp": 1305,
      "Ġrecord": 1306,
      "Ġimportance": 1307,
      "ather": 1308,
      "Ġeffectively": 1309,
      "Ġindividuals": 1310,
      "Ġtwo": 1311,
      "Ġspoken": 1312,
      "sion": 1313,
      "Ġsp": 1314,
      "Ġbeh": 1315,
      "ember": 1316,
      "Ġcontrol": 1317,
      "Ġsomeone": 1318,
      "Ġpractices": 1319,
      "viron": 1320,
      "Ġanalyz": 1321,
      "Ġsummar": 1322,
      "Ġapplications": 1323,
      "Ġwriting": 1324,
      "oogle": 1325,
      "ll": 1326,
      "ood": 1327,
      "oid": 1328,
      "Ġ3": 1329,
      "Ġide": 1330,
      "iting": 1331,
      "Ġoth": 1332,
      "Ġgest": 1333,
      "Ġonline": 1334,
      "Ġenviron": 1335,
      "Ġspeaking": 1336,
      "Ġwords": 1337,
      "Ġrandom": 1338,
      "text": 1339,
      "ationsh": 1340,
      "cast": 1341,
      "Ġcollab": 1342,
      "pret": 1343,
      "Ġnetwork": 1344,
      "Ġrelationsh": 1345,
      "Ġmessage": 1346,
      "numbers": 1347,
      "Ġothers": 1348,
      "Ġcollabor": 1349,
      "ople": 1350,
      "ub": 1351,
      "way": 1352,
      "Ġfile": 1353,
      "Ġhere": 1354,
      "Ġlen": 1355,
      "Ġlab": 1356,
      "ast": 1357,
      "ason": 1358,
      "Ġdef": 1359,
      "Ġstart": 1360,
      "Ġasking": 1361,
      "ider": 1362,
      "Ġaccur": 1363,
      "pose": 1364,
      "ĠEng": 1365,
      "ired": 1366,
      "Ġdistribut": 1367,
      "Ġtyp": 1368,
      "Ġaddress": 1369,
      "structive": 1370,
      "lation": 1371,
      "med": 1372,
      "ten": 1373,
      "rect": 1374,
      "Ġsure": 1375,
      "ism": 1376,
      "Ġpod": 1377,
      "Ġmed": 1378,
      "Ġmot": 1379,
      "Ġprom": 1380,
      "Ġmaking": 1381,
      "Ġwho": 1382,
      "Ġchec": 1383,
      "Ġoverwh": 1384,
      "Ġcloud": 1385,
      "Ġdevices": 1386,
      "Ġfeatures": 1387,
      "Ġgiven": 1388,
      "Ġbenefit": 1389,
      "Ġoverwhel": 1390,
      "00": 1391,
      "In": 1392,
      "care": 1393,
      "ible": 1394,
      "ply": 1395,
      "Ġ{": 1396,
      "Ġour": 1397,
      "Ġcould": 1398,
      "Ġcount": 1399,
      "Ġthough": 1400,
      "lease": 1401,
      "Ġfi": 1402,
      "Ġopen": 1403,
      "Ġrequ": 1404,
      "Ġrevers": 1405,
      "Ġyourself": 1406,
      "ote": 1407,
      "Ġsub": 1408,
      "ĠĠĠĠĠĠĠĠĠĠĠ": 1409,
      "Ġinterru": 1410,
      "Ġinterpret": 1411,
      "ables": 1412,
      "Ġgoing": 1413,
      "ieve": 1414,
      "Ġgenerate": 1415,
      "ĠHere": 1416,
      "ency": 1417,
      "Ġtools": 1418,
      "Ġapproach": 1419,
      "Hello": 1420,
      "con": 1421,
      "fore": 1422,
      "lic": 1423,
      "ness": 1424,
      "ost": 1425,
      "ĠU": 1426,
      "atch": 1427,
      "Ġsoc": 1428,
      "Ġthere": 1429,
      "Ġfav": 1430,
      "Ġins": 1431,
      "ark": 1432,
      "Ġbl": 1433,
      "Ġreason": 1434,
      "Ġprovid": 1435,
      "Ġstep": 1436,
      "Ġbefore": 1437,
      "oding": 1438,
      "Ġsubject": 1439,
      "ression": 1440,
      "lict": 1441,
      "ecogn": 1442,
      "Ġprior": 1443,
      "Ġrespons": 1444,
      "Ġdiscus": 1445,
      "string": 1446,
      "Ġthink": 1447,
      "Ġpeople": 1448,
      "ĠEnglish": 1449,
      "Ġfavor": 1450,
      "Yes": 1451,
      "oy": 1452,
      "oad": 1453,
      "ral": 1454,
      "set": 1455,
      "vel": 1456,
      "vacy": 1457,
      "ĠV": 1458,
      "Ġach": 1459,
      "Ġinst": 1460,
      "Ġmus": 1461,
      "road": 1462,
      "Ġbet": 1463,
      "Ġbrain": 1464,
      "Ġdon": 1465,
      "Ġloc": 1466,
      "Ġconc": 1467,
      "riend": 1468,
      "Ġsuc": 1469,
      "Ġdoing": 1470,
      "Ġdoes": 1471,
      "ĠThese": 1472,
      "ically": 1473,
      "ences": 1474,
      "Ġconflict": 1475,
      "Ġgreet": 1476,
      "Ġsentiment": 1477,
      "ĠAny": 1478,
      "print": 1479,
      "Ġpurpose": 1480,
      "Ġagree": 1481,
      "ditionally": 1482,
      "ĠAdditionally": 1483,
      "Ġbehavi": 1484,
      "Ġbetter": 1485,
      ">\\": 1486,
      "Do": 1487,
      "gin": 1488,
      "vent": 1489,
      "Ġ4": 1490,
      "Ġoutput": 1491,
      "ĠWhat": 1492,
      "Ġtell": 1493,
      "atform": 1494,
      "Ġsched": 1495,
      "Ġtotal": 1496,
      "Ġmind": 1497,
      "imes": 1498,
      "get": 1499,
      "ateg": 1500,
      "resence": 1501,
      "Ġchat": 1502,
      "tern": 1503,
      "Ġright": 1504,
      "Ġfeelings": 1505,
      "Ġempath": 1506,
      "Ġdescription": 1507,
      "Ġvision": 1508,
      "Ġbreak": 1509,
      "Ġstrateg": 1510,
      "Ġgreat": 1511,
      "Ġmulti": 1512,
      "Ġquestions": 1513,
      "Ġmotiv": 1514,
      "Ġoverwhelmed": 1515,
      "Ġreverse": 1516,
      "Ġfavorite": 1517,
      "air": 1518,
      "ces": 1519,
      "der": 1520,
      "ead": 1521,
      "wn": 1522,
      "Ġaverage": 1523,
      "oura": 1524,
      "Ġbel": 1525,
      "Ġback": 1526,
      "Ġoffer": 1527,
      "Ġissu": 1528,
      "ilities": 1529,
      "ĠAm": 1530,
      "idence": 1531,
      "play": 1532,
      "ference": 1533,
      "Ġimprovement": 1534,
      "Ġintera": 1535,
      "Ġneed": 1536,
      "Ġcontext": 1537,
      "Ġeffic": 1538,
      "Ġprivacy": 1539,
      "Ġavoid": 1540,
      "icroph": 1541,
      "Ġsummarization": 1542,
      "'.": 1543,
      "Im": 1544,
      "come": 1545,
      "upervised": 1546,
      "Ġcrit": 1547,
      "Ġcoding": 1548,
      "rec": 1549,
      "Ġsens": 1550,
      "ense": 1551,
      "ank": 1552,
      "Ġown": 1553,
      "ower": 1554,
      "icing": 1555,
      "When": 1556,
      "ulation": 1557,
      "Ġconstructive": 1558,
      "Ġbeen": 1559,
      "Ġplatform": 1560,
      "Ġquality": 1561,
      "Ġregularly": 1562,
      "Ġextract": 1563,
      "Ġrelationships": 1564,
      "Ġdistributed": 1565,
      "Ġfiel": 1566,
      "ck": 1567,
      "model": 1568,
      "nprint": 1569,
      "oT": 1570,
      "Ġ5": 1571,
      "eric": 1572,
      "Ġsong": 1573,
      "Ġfol": 1574,
      "Ġtop": 1575,
      "Ġmay": 1576,
      "gether": 1577,
      "Ġline": 1578,
      "aset": 1579,
      "Ġdataset": 1580,
      "Ġsecur": 1581,
      "Ġcalculates": 1582,
      "Ġtechnique": 1583,
      "Ġengaging": 1584,
      "ĠJav": 1585,
      "ialect": 1586,
      "Ġautom": 1587,
      "Ġautonom": 1588,
      "Ġtype": 1589,
      "ublic": 1590,
      "Ġpodcast": 1591,
      "Ġreasoning": 1592,
      "Ġproviding": 1593,
      "Ġmusic": 1594,
      "Ġsecurity": 1595,
      "ĠJava": 1596,
      "\\\"": 1597,
      "bye": 1598,
      "fic": 1599,
      "ner": 1600,
      "solving": 1601,
      "ues": 1602,
      "ved": 1603,
      "Ġtal": 1604,
      "Ġcour": 1605,
      "Ġmod": 1606,
      "Ġoper": 1607,
      "ars": 1608,
      "Ġbody": 1609,
      "Ġday": 1610,
      "Ġdialect": 1611,
      "Ġhad": 1612,
      "Ġlarge": 1613,
      "ife": 1614,
      "Ġimpact": 1615,
      "Ġunsu": 1616,
      "Ġinterest": 1617,
      "ock": 1618,
      "Ġargu": 1619,
      "Ġrespect": 1620,
      "Ġemail": 1621,
      "Ġpracticing": 1622,
      "Ġperspe": 1623,
      "Ġscene": 1624,
      "Ġstring": 1625,
      "Ġconfidence": 1626,
      "Ġrobot": 1627,
      "Ġconsider": 1628,
      "Ġthank": 1629,
      "Ġstructure": 1630,
      "ĠGoogle": 1631,
      "Ġpositive": 1632,
      "Ġpredictions": 1633,
      "Ġideas": 1634,
      "Ġenvironment": 1635,
      "Ġlabeled": 1636,
      "Ġpriorit": 1637,
      "Ġsuccess": 1638,
      "Ġmultiple": 1639,
      "Ġunsupervised": 1640,
      "([": 1641,
      "NN": 1642,
      "certain": 1643,
      "presence": 1644,
      "ward": 1645,
      "Ġactive": 1646,
      "orry": 1647,
      "lepresence": 1648,
      "Ġpublic": 1649,
      "Ġtogether": 1650,
      "Ġmin": 1651,
      "Ġment": 1652,
      "Ġmist": 1653,
      "Ġbo": 1654,
      "Ġbr": 1655,
      "Ġelement": 1656,
      "Ġwithin": 1657,
      "ĠAust": 1658,
      "Ġuncertain": 1659,
      "Ġinterview": 1660,
      "Ġneg": 1661,
      "ending": 1662,
      "Ġrange": 1663,
      "ĠThe": 1664,
      "ource": 1665,
      "Ġdescript": 1666,
      "Ġkeep": 1667,
      "Ġmultimodal": 1668,
      "Ġemotions": 1669,
      "Ġpoints": 1670,
      "Ġexpress": 1671,
      "Ġthoughts": 1672,
      "Ġempathy": 1673,
      "rics": 1674,
      "ss": 1675,
      "{\\\"": 1676,
      "Ġverb": 1677,
      "Ġfram": 1678,
      "espe": 1679,
      "alth": 1680,
      "Ġmid": 1681,
      "icate": 1682,
      "Ġlay": 1683,
      "Ġname": 1684,
      "Ġnavi": 1685,
      "Who": 1686,
      "olve": 1687,
      "Ġgive": 1688,
      "Ġstre": 1689,
      "Ġstand": 1690,
      "Ġstud": 1691,
      "storm": 1692,
      "ivers": 1693,
      "Ġspeak": 1694,
      "Ġplans": 1695,
      "Ġaccents": 1696,
      "iety": 1697,
      "Ġproblems": 1698,
      "Ġhealth": 1699,
      "Ġprojects": 1700,
      "fitting": 1701,
      "ook": 1702,
      "Ġnetworks": 1703,
      "words": 1704,
      "Ġnoise": 1705,
      "Ġdebate": 1706,
      "Ġcommands": 1707,
      "Ġcorrect": 1708,
      "ways": 1709,
      "Ġcheck": 1710,
      "roadcas": 1711,
      "Ġagreement": 1712,
      "Ġstrategies": 1713,
      "Ġnavig": 1714,
      "'\\": 1715,
      ").": 1716,
      "Audio": 1717,
      "Recogn": 1718,
      "audio": 1719,
      "bers": 1720,
      "eg": 1721,
      "ek": 1722,
      "round": 1723,
      "Ġer": 1724,
      "iness": 1725,
      "anel": 1726,
      "lection": 1727,
      "Ġpower": 1728,
      "Ġwould": 1729,
      "Ġreach": 1730,
      "Ġlight": 1731,
      "Ġlife": 1732,
      "Ġgra": 1733,
      "Ġstress": 1734,
      "estion": 1735,
      "Ġchar": 1736,
      "search": 1737,
      "Ġword": 1738,
      "lide": 1739,
      "ources": 1740,
      "Ġmachines": 1741,
      "Ġremote": 1742,
      "Ġreally": 1743,
      "Ġsentence": 1744,
      "Ġedge": 1745,
      "Ġdeliver": 1746,
      "Ġbrainstorm": 1747,
      "Ġschedule": 1748,
      "ĠAmeric": 1749,
      "roadcasting": 1750,
      "'.\"}": 1751,
      "Bec": 1752,
      "CV": 1753,
      "TM": 1754,
      "ax": 1755,
      "aks": 1756,
      "bal": 1757,
      "pp": 1758,
      "train": 1759,
      "ĠCan": 1760,
      "Ġget": 1761,
      "uture": 1762,
      "ater": 1763,
      "Ġsample": 1764,
      "isms": 1765,
      "Ġfam": 1766,
      "Ġfriend": 1767,
      "Ġfuture": 1768,
      "itu": 1769,
      "ards": 1770,
      "Ġbus": 1771,
      "Ġrece": 1772,
      "Ġredu": 1773,
      "Ġeas": 1774,
      "Ġprotect": 1775,
      "ĠIoT": 1776,
      "ifi": 1777,
      "Ġconference": 1778,
      "pture": 1779,
      "Ġalways": 1780,
      "quence": 1781,
      "Ġareas": 1782,
      "Ġsupervised": 1783,
      "Ġrecur": 1784,
      "Ġweek": 1785,
      "Ġuseful": 1786,
      "Ġmost": 1787,
      "ideo": 1788,
      "Ġtranscription": 1789,
      "Ġbreaking": 1790,
      "Ġbreaks": 1791,
      "penCV": 1792,
      "Ġapplication": 1793,
      "Ġaccessibility": 1794,
      "ĠOpenCV": 1795,
      "ncv": 1796,
      "Ġencoura": 1797,
      "Ġrecording": 1798,
      "Ġsocial": 1799,
      "Ġmotivated": 1800,
      "icrophone": 1801,
      "Ġcritic": 1802,
      "Ġfollow": 1803,
      "Because": 1804,
      "'ve": 1805,
      "()\"}": 1806,
      "..": 1807,
      "net": 1808,
      "to": 1809,
      "wering": 1810,
      "Ġtarge": 1811,
      "erbal": 1812,
      "Ġcues": 1813,
      "reen": 1814,
      "read": 1815,
      "Ġsur": 1816,
      "oring": 1817,
      "aris": 1818,
      "els": 1819,
      "Ġevery": 1820,
      "vey": 1821,
      "onverbal": 1822,
      "Ġdem": 1823,
      "raw": 1824,
      "Ġconvey": 1825,
      "ything": 1826,
      "Ġinteract": 1827,
      "Ġability": 1828,
      "Ġtask": 1829,
      "Ġhumans": 1830,
      "Ġensuring": 1831,
      "Ġproduct": 1832,
      "Ġgrow": 1833,
      "Ġediting": 1834,
      "Ġquestion": 1835,
      "Ġpolit": 1836,
      "Ġmeaning": 1837,
      "Ġactively": 1838,
      "Ġanalyze": 1839,
      "Ġmedia": 1840,
      "Ġconflicts": 1841,
      "Ġbehavior": 1842,
      "Ġchatbot": 1843,
      "Ġprioritize": 1844,
      "ĠAustral": 1845,
      "Ġbrainstorming": 1846,
      "TML": 1847,
      "Ġcriticism": 1848,
      "Ex": 1849,
      "Script": 1850,
      "eded": 1851,
      "fe": 1852,
      "gment": 1853,
      "nimport": 1854,
      "row": 1855,
      "rans": 1856,
      "Ġent": 1857,
      "Ġvi": 1858,
      "Ġter": 1859,
      "eries": 1860,
      "Ġcust": 1861,
      "rent": 1862,
      "orld": 1863,
      "Ġpanel": 1864,
      "oup": 1865,
      "Ġwro": 1866,
      "Ġdi": 1867,
      "thing": 1868,
      "Ġnonverbal": 1869,
      "ases": 1870,
      "Ġcomb": 1871,
      "abilities": 1872,
      "plain": 1873,
      "Ġimproving": 1874,
      "ually": 1875,
      "Ġneeded": 1876,
      "Ġcontact": 1877,
      "Ġshare": 1878,
      "Ġcomputers": 1879,
      "ĠThey": 1880,
      "Ġprevent": 1881,
      "Ġclar": 1882,
      "Ġtranslation": 1883,
      "Ġscreen": 1884,
      "ength": 1885,
      "Ġupd": 1886,
      "Ġrole": 1887,
      "ĠBy": 1888,
      "Ġchallenging": 1889,
      "Ġproduction": 1890,
      "Ġcoach": 1891,
      "anced": 1892,
      "Ġstrugg": 1893,
      "Ġloop": 1894,
      "recogn": 1895,
      "Ġtopic": 1896,
      "ĠJavaScript": 1897,
      "Ġcourse": 1898,
      "Ġelements": 1899,
      "Ġreceiv": 1900,
      "Ġweekend": 1901,
      "Ġtarget": 1902,
      "Ġcustom": 1903,
      "Ġwrote": 1904,
      "'\"}": 1905,
      "Of": 1906,
      "],": 1907,
      "her": 1908,
      "iet": 1909,
      "ob": 1910,
      "tt": 1911,
      "Ġaction": 1912,
      "Ġtaking": 1913,
      "ator": 1914,
      "ators": 1915,
      "Ġcity": 1916,
      "Ġscript": 1917,
      "Ġsolution": 1918,
      "Ġpass": 1919,
      "Ġfir": 1920,
      "its": 1921,
      "ouble": 1922,
      "icit": 1923,
      "Ġnum": 1924,
      "Ġgu": 1925,
      "Ġorder": 1926,
      "rue": 1927,
      "Ġapolog": 1928,
      "Ġhaving": 1929,
      "ĠSpeech": 1930,
      "cribe": 1931,
      "Ġimplementing": 1932,
      "Ġevents": 1933,
      "ensor": 1934,
      "ĠMake": 1935,
      "Ġremember": 1936,
      "Ġallowing": 1937,
      "Ġfocused": 1938,
      "Ġclean": 1939,
      "Ġgroup": 1940,
      "Ġseek": 1941,
      "Ġservice": 1942,
      "Ġvalues": 1943,
      "nfrom": 1944,
      "Ġgestures": 1945,
      "Ġcollaboration": 1946,
      "Ġtypes": 1947,
      "Ġsuccessful": 1948,
      "ĠAmerican": 1949,
      "Ġbusiness": 1950,
      "</": 1951,
      "Mult": 1952,
      "NL": 1953,
      "PI": 1954,
      "SL": 1955,
      "Speech": 1956,
      "]\\": 1957,
      "]\"}": 1958,
      "count": 1959,
      "hor": 1960,
      "kay": 1961,
      "ning": 1962,
      "other": 1963,
      "por": 1964,
      "pass": 1965,
      "rating": 1966,
      "Ġve": 1967,
      "ĠOne": 1968,
      "Ġview": 1969,
      "Ġtone": 1970,
      "Ġthese": 1971,
      "Ġans": 1972,
      "Ġmis": 1973,
      "Ġwrite": 1974,
      "Ġokay": 1975,
      "ross": 1976,
      "aring": 1977,
      "Ġlong": 1978,
      "Ġnarr": 1979,
      "ulate": 1980,
      "Ġstor": 1981,
      "Ġstate": 1982,
      "Ġask": 1983,
      "Ġmade": 1984,
      "Ġiter": 1985,
      "emember": 1986,
      "Ġchord": 1987,
      "Ġcaus": 1988,
      "Ġworking": 1989,
      "Ġworks": 1990,
      "Ġincor": 1991,
      "Ġvideos": 1992,
      "Ġappe": 1993,
      "achine": 1994,
      "Ġprovides": 1995,
      "like": 1996,
      "Ġprocesses": 1997,
      "Ġrecognize": 1998,
      "ĠRemember": 1999,
      "ĠHTML": 2000,
      "orest": 2001,
      "Ġtrained": 2002,
      "Ġexplicit": 2003,
      "Ġmembers": 2004,
      "Ġmanageable": 2005,
      "Ġposs": 2006,
      "Ġemotional": 2007,
      "Ġaccurate": 2008,
      "Ġinterruptions": 2009,
      "Ġbelieve": 2010,
      "Ġissue": 2011,
      "Ġefficient": 2012,
      "Ġboth": 2013,
      "Ġuncertainty": 2014,
      "Ġhealthcare": 2015,
      "Ġcharact": 2016,
      "trained": 2017,
      "'re": 2018,
      "'?\",": 2019,
      "():\\": 2020,
      "?\\\",": 2021,
      "De": 2022,
      "Supervised": 2023,
      "Video": 2024,
      "ait": 2025,
      "aired": 2026,
      "co": 2027,
      "ee": 2028,
      "ground": 2029,
      "hic": 2030,
      "ian": 2031,
      "pare": 2032,
      "wards": 2033,
      "Ġi": 2034,
      "inc": 2035,
      "Ġactions": 2036,
      "ons": 2037,
      "onac": 2038,
      "erg": 2039,
      "erver": 2040,
      "itation": 2041,
      "Ġind": 2042,
      "Ġwide": 2043,
      "Ġresearch": 2044,
      "ick": 2045,
      "Ġoff": 2046,
      "Ġequ": 2047,
      "Ġeye": 2048,
      "Ġly": 2049,
      "Ġnow": 2050,
      "ĠIm": 2051,
      "olar": 2052,
      "Ġexc": 2053,
      "izer": 2054,
      "Ġvers": 2055,
      "Ġsugg": 2056,
      "Ġrecent": 2057,
      "Ġselect": 2058,
      "Ġcontin": 2059,
      "Ġarray": 2060,
      "Ġtrouble": 2061,
      "Ġresult": 2062,
      "ĠSh": 2063,
      "Ġways": 2064,
      "Ġprogress": 2065,
      "Ġoverfitting": 2066,
      "Ġeven": 2067,
      "Ġaccount": 2068,
      "ĠLanguage": 2069,
      "ails": 2070,
      "Ġbreath": 2071,
      "Ġprogrammed": 2072,
      "Ġcolle": 2073,
      "Ġstrong": 2074,
      "Ġvisually": 2075,
      "ctivity": 2076,
      "ibonac": 2077,
      "Ġitself": 2078,
      "Ġenhanc": 2079,
      "Ġproductivity": 2080,
      "cially": 2081,
      "Ġjust": 2082,
      "Ġformat": 2083,
      "Ġmemory": 2084,
      "cade": 2085,
      "Ġthinking": 2086,
      "Ġgesture": 2087,
      "Ġprompt": 2088,
      "Ġsubset": 2089,
      "Ġinsp": 2090,
      "Ġdiscuss": 2091,
      "Ġbackground": 2092,
      "Ġinteractions": 2093,
      "Ġdescriptions": 2094,
      "Ġvehic": 2095,
      "ibonacci": 2096,
      "')": 2097,
      ";\\": 2098,
      "An": 2099,
      "CNN": 2100,
      "Good": 2101,
      "Object": 2102,
      "SS": 2103,
      "az": 2104,
      "ave": 2105,
      "agu": 2106,
      "for": 2107,
      "ious": 2108,
      "lass": 2109,
      "oh": 2110,
      "oom": 2111,
      "pend": 2112,
      "ue": 2113,
      "wer": 2114,
      "ĠQ": 2115,
      "Ġra": 2116,
      "Ġespe": 2117,
      "ining": 2118,
      "ones": 2119,
      "erting": 2120,
      "reas": 2121,
      "Ġsolve": 2122,
      "orient": 2123,
      "Ġpy": 2124,
      "Ġpot": 2125,
      "ited": 2126,
      "Ġtowards": 2127,
      "Ġwatch": 2128,
      "entiment": 2129,
      "Ġoften": 2130,
      "Ġever": 2131,
      "Ġlow": 2132,
      "Ġlog": 2133,
      "Ġdet": 2134,
      "Ġdead": 2135,
      "ĠParis": 2136,
      "amet": 2137,
      "Ġenab": 2138,
      "Ġenables": 2139,
      "Ġlearns": 2140,
      "Ġunlab": 2141,
      "Ġchang": 2142,
      "Ġsequence": 2143,
      "Ġsomething": 2144,
      "lugin": 2145,
      "term": 2146,
      "Ġresources": 2147,
      "Ġexamples": 2148,
      "Ġprefer": 2149,
      "osy": 2150,
      "ights": 2151,
      "Ġmany": 2152,
      "Ġscen": 2153,
      "ension": 2154,
      "Ġengine": 2155,
      "akes": 2156,
      "Ġassert": 2157,
      "Ġsounds": 2158,
      "olutional": 2159,
      "Ġvariable": 2160,
      "Ġtrack": 2161,
      "Ġamong": 2162,
      "Ġsaid": 2163,
      "Ġencry": 2164,
      "Ġbuild": 2165,
      "Ġbuilding": 2166,
      "Ġrespectful": 2167,
      "Ġmistake": 2168,
      "Ġframe": 2169,
      "Explain": 2170,
      "Ġapologize": 2171,
      "Ġespecially": 2172,
      "oriented": 2173,
      "Ġpotential": 2174,
      "Ġunlabeled": 2175,
      "')\"}": 2176,
      "Er": 2177,
      "Rome": 2178,
      "\\\\": 2179,
      "])": 2180,
      "aut": 2181,
      "ef": 2182,
      "ever": 2183,
      "fort": 2184,
      "ience": 2185,
      "joy": 2186,
      "lling": 2187,
      "nmodel": 2188,
      "par": 2189,
      "pos": 2190,
      "pair": 2191,
      "sort": 2192,
      "vant": 2193,
      "ĠK": 2194,
      "inal": 2195,
      "inary": 2196,
      "Ġtre": 2197,
      "ero": 2198,
      "Ġcur": 2199,
      "Ġcult": 2200,
      "repair": 2201,
      "Ġsorry": 2202,
      "levant": 2203,
      "Ġinf": 2204,
      "Ġanx": 2205,
      "pelling": 2206,
      "Ġmet": 2207,
      "Ġop": 2208,
      "arcas": 2209,
      "Ġboo": 2210,
      "Ġbroadcasting": 2211,
      "Ġrelevant": 2212,
      "ention": 2213,
      "Ġdid": 2214,
      "Ġhost": 2215,
      "Ġuses": 2216,
      "und": 2217,
      "Ġdec": 2218,
      "Ġcompl": 2219,
      "uliet": 2220,
      "ily": 2221,
      "Ġstat": 2222,
      "Ġtem": 2223,
      "Ġtelepresence": 2224,
      "Ġenjoy": 2225,
      "ĠAPI": 2226,
      "ritish": 2227,
      "ploy": 2228,
      "Ġweather": 2229,
      "Ġcare": 2230,
      "Ġcapt": 2231,
      "Ġcaptions": 2232,
      "Ġmovi": 2233,
      "Ġmovie": 2234,
      "Ġinternet": 2235,
      "Ġresolving": 2236,
      "ĠSt": 2237,
      "Ġrather": 2238,
      "Ġcommunicate": 2239,
      "cise": 2240,
      "ponents": 2241,
      "Ġcapabilities": 2242,
      "ĠJuliet": 2243,
      "Ġremind": 2244,
      "Ġfinding": 2245,
      "process": 2246,
      "ngth": 2247,
      "Ġsignific": 2248,
      "Ġdecision": 2249,
      "Ġcalls": 2250,
      "Ġ<=": 2251,
      "Ġfeature": 2252,
      "Ġmanagement": 2253,
      "Ġfaces": 2254,
      "Ġoptimize": 2255,
      "Ġdelivery": 2256,
      "Ġaccuracy": 2257,
      "Ġdiscussion": 2258,
      "Ġachie": 2259,
      "Ġachieve": 2260,
      "Ġfield": 2261,
      "Ġstrength": 2262,
      "Ġstudy": 2263,
      "Ġeveryone": 2264,
      "Ġnarrative": 2265,
      "Ġincorpor": 2266,
      "Ġcolleagu": 2267,
      "Ġvehicles": 2268,
      "Ġenabling": 2269,
      "Error": 2270,
      "Romeo": 2271,
      ".\\": 2272,
      "Con": 2273,
      "aw": 2274,
      "average": 2275,
      "ex": 2276,
      "ears": 2277,
      "hello": 2278,
      "my": 2279,
      "nect": 2280,
      "name": 2281,
      "pg": 2282,
      "ron": 2283,
      "spe": 2284,
      "ted": 2285,
      "vtt": 2286,
      "xcept": 2287,
      "ĠZ": 2288,
      "Ġx": 2289,
      "Ġtest": 2290,
      "Ġturn": 2291,
      "atures": 2292,
      "Ġsend": 2293,
      "Ġsense": 2294,
      "Ġslide": 2295,
      "ane": 2296,
      "dest": 2297,
      "Ġpause": 2298,
      "Ġflow": 2299,
      "Ġfree": 2300,
      "itle": 2301,
      "Ġtoo": 2302,
      "Ġmicrophone": 2303,
      "arm": 2304,
      "Ġyears": 2305,
      "Ġhi": 2306,
      "Ġlength": 2307,
      "Ġnerv": 2308,
      "Ġconne": 2309,
      "Ġexer": 2310,
      "ists": 2311,
      "Ġenerg": 2312,
      "ivity": 2313,
      "Ġchange": 2314,
      "Ġimproved": 2315,
      "Ġrecip": 2316,
      "Ġaround": 2317,
      "nexcept": 2318,
      "Ġunder": 2319,
      "Ġprepare": 2320,
      "Ġadj": 2321,
      "Ġdiffic": 2322,
      "ecur": 2323,
      "Ġevo": 2324,
      "Ġtransform": 2325,
      "Ġaccent": 2326,
      "iece": 2327,
      "ĠLet": 2328,
      "ĠHowever": 2329,
      "Ġgenerates": 2330,
      "Ġconverting": 2331,
      "Ġmeetings": 2332,
      "Ġdistance": 2333,
      "Ġexperiences": 2334,
      "Ġresponse": 2335,
      "Ġaccessible": 2336,
      "Ġamount": 2337,
      "Ġphr": 2338,
      "Ġassistants": 2339,
      "price": 2340,
      "Ġmethods": 2341,
      "Ġadvanced": 2342,
      "Ġidentifying": 2343,
      "Ġservices": 2344,
      "Ġvalue": 2345,
      "Ġoptimizing": 2346,
      "Ġleading": 2347,
      "Ġbenefits": 2348,
      "Ġautonomous": 2349,
      "Ġperspective": 2350,
      "Ġlayers": 2351,
      "Ġspeaker": 2352,
      "Recognition": 2353,
      "Ġpowerful": 2354,
      "ĠAustralia": 2355,
      "Ġstruggling": 2356,
      "Ġfirst": 2357,
      "Ġexplicitly": 2358,
      "Ġsuggest": 2359,
      "Ġanxiety": 2360,
      ".'\"}": 2361,
      "AI": 2362,
      "Hey": 2363,
      "Machine": 2364,
      "])\\": 2365,
      "cle": 2366,
      "ccur": 2367,
      "ging": 2368,
      "ik": 2369,
      "iation": 2370,
      "jpg": 2371,
      "loud": 2372,
      "ope": 2373,
      "ove": 2374,
      "oot": 2375,
      "tts": 2376,
      "Ġ6": 2377,
      "Ġ9": 2378,
      "Ġk": 2379,
      "Ġtimes": 2380,
      "Ġsing": 2381,
      "Ġsame": 2382,
      "isual": 2383,
      "Ġplugin": 2384,
      "Ġforest": 2385,
      "itial": 2386,
      "Ġinde": 2387,
      "Ġmom": 2388,
      "Ġmark": 2389,
      "ctures": 2390,
      "Ġwant": 2391,
      "ows": 2392,
      "arg": 2393,
      "Ġbinary": 2394,
      "iments": 2395,
      "omet": 2396,
      "Ġdivers": 2397,
      "Ġlat": 2398,
      "Ġdeploy": 2399,
      "Ġimpaired": 2400,
      "Ġconnect": 2401,
      "ĠPre": 2402,
      "igm": 2403,
      "Ġend": 2404,
      "Ġmain": 2405,
      "otosy": 2406,
      "otiation": 2407,
      "email": 2408,
      "Ġchem": 2409,
      "Ġcreative": 2410,
      "ification": 2411,
      "Ġfactors": 2412,
      "ĠSign": 2413,
      "Ġcommonly": 2414,
      "Ġplan": 2415,
      "Ġplace": 2416,
      "Ġoverall": 2417,
      "Ġovercome": 2418,
      "ously": 2419,
      "Ġpersu": 2420,
      "Ġmanner": 2421,
      "Ġeffects": 2422,
      "Ġsimulate": 2423,
      "Ġtransl": 2424,
      "ountain": 2425,
      "ĠCode": 2426,
      "ĠLoad": 2427,
      "ĠTo": 2428,
      "Ġgenerating": 2429,
      "ifying": 2430,
      "Ġconfident": 2431,
      "Ġconvolutional": 2432,
      "Ġgoodbye": 2433,
      "Ġfocuses": 2434,
      "Ġreader": 2435,
      "Ġmessages": 2436,
      "Ġpolite": 2437,
      "onomy": 2438,
      "Ġadvance": 2439,
      "Ġshows": 2440,
      "Ġparticipants": 2441,
      "show": 2442,
      "Ġpredict": 2443,
      "Ġanalyzing": 2444,
      "Ġtypically": 2445,
      "Ġrequest": 2446,
      "Ġsteps": 2447,
      "Ġlocation": 2448,
      "Ġfields": 2449,
      "Ġautonomy": 2450,
      "Ġarguments": 2451,
      "Ġnegotiation": 2452,
      "Ġfamous": 2453,
      "Ġgrowth": 2454,
      "Ġpolitely": 2455,
      "Ġterms": 2456,
      "Ġcoaching": 2457,
      "Ġlyrics": 2458,
      "Ġresults": 2459,
      "ĠQu": 2460,
      "Ġpytts": 2461,
      "Ġcurrent": 2462,
      "Ġhosting": 2463,
      "Ġstatist": 2464,
      "Ġsignificant": 2465,
      "Ġenergy": 2466,
      "Ġevoke": 2467,
      "Ġpyttsx": 2468,
      "'>": 2469,
      "):": 2470,
      ")?\",": 2471,
      "::": 2472,
      "iency": 2473,
      "me": 2474,
      "mor": 2475,
      "oices": 2476,
      "present": 2477,
      "rors": 2478,
      "ven": 2479,
      "ves": 2480,
      "writ": 2481,
      "}\"}": 2482,
      "inci": 2483,
      "Ġact": 2484,
      "Ġtim": 2485,
      "ata": 2486,
      "ature": 2487,
      "Ġcam": 2488,
      "Ġcli": 2489,
      "Ġsl": 2490,
      "Ġsitu": 2491,
      "orch": 2492,
      "Ġthree": 2493,
      "Ġful": 2494,
      "Ġfil": 2495,
      "Ġface": 2496,
      "ites": 2497,
      "Ġmath": 2498,
      "ctor": 2499,
      "Ġoccur": 2500,
      "arth": 2501,
      "argu": 2502,
      "imate": 2503,
      "ational": 2504,
      "Ġlangu": 2505,
      "Ġlarg": 2506,
      "thank": 2507,
      "aster": 2508,
      "Ġcompelling": 2509,
      "eting": 2510,
      "ĠPy": 2511,
      "ĠPro": 2512,
      "essions": 2513,
      "plement": 2514,
      "quality": 2515,
      "Ġbeca": 2516,
      "Ġarea": 2517,
      ")\\\\": 2518,
      "Ġhelpful": 2519,
      "Ġmove": 2520,
      "Ġincreas": 2521,
      "ffic": 2522,
      "Ġcalm": 2523,
      "Ġshort": 2524,
      "Ġpreprocess": 2525,
      "Ġmanaging": 2526,
      "ĠRe": 2527,
      "Ġpron": 2528,
      "ĠMon": 2529,
      "ĠJoh": 2530,
      "Ġbug": 2531,
      "ctives": 2532,
      "ĠBritish": 2533,
      "Ġsigns": 2534,
      "Ġconsist": 2535,
      "Ġground": 2536,
      "ances": 2537,
      "Ġdisco": 2538,
      "Ġknown": 2539,
      "Ġgiving": 2540,
      "Ġfaced": 2541,
      "Ġadvice": 2542,
      "Ġparamet": 2543,
      "Ġorganized": 2544,
      "Ġorganisms": 2545,
      "Ġdesigned": 2546,
      "Ġspace": 2547,
      "llables": 2548,
      "ĠUns": 2549,
      "Ġinteraction": 2550,
      "Ġneeds": 2551,
      "Ġavoiding": 2552,
      "Ġautomat": 2553,
      "ficial": 2554,
      "Ġperspectives": 2555,
      "Ġrobots": 2556,
      "Ġerror": 2557,
      "Ġdelivering": 2558,
      "Ġencourage": 2559,
      "Multimodal": 2560,
      "Ġstorage": 2561,
      "Ġiterate": 2562,
      "Ġoffers": 2563,
      "Ġexciting": 2564,
      "Ġenhancing": 2565,
      "Ġscenes": 2566,
      "Ġopin": 2567,
      "Ġstrengths": 2568,
      "ĠZoom": 2569,
      "Ġdifficult": 2570,
      "Ġpersuas": 2571,
      "Ġadvancements": 2572,
      "Ġlanguages": 2573,
      "Ġbecause": 2574,
      ".\\\",": 2575,
      "Aut": 2576,
      "Could": 2577,
      "List": 2578,
      "SO": 2579,
      "Trans": 2580,
      "apt": 2581,
      "ault": 2582,
      "ection": 2583,
      "equ": 2584,
      "file": 2585,
      "ker": 2586,
      "load": 2587,
      "mi": 2588,
      "mp": 2589,
      "nd": 2590,
      "nr": 2591,
      "nw": 2592,
      "ores": 2593,
      "pm": 2594,
      "source": 2595,
      "tra": 2596,
      "}\\": 2597,
      "Ġru": 2598,
      "ination": 2599,
      "onstr": 2600,
      "Ġcent": 2601,
      "Ġsolving": 2602,
      "Ġsource": 2603,
      "Ġserver": 2604,
      "lest": 2605,
      "learn": 2606,
      "Ġpain": 2607,
      "Ġplease": 2608,
      "Ġfibonacci": 2609,
      "itions": 2610,
      "alid": 2611,
      "Ġtomor": 2612,
      "Ġmountain": 2613,
      "Ġrepresent": 2614,
      "img": 2615,
      "Ġdire": 2616,
      "Ġet": 2617,
      "Ġhis": 2618,
      "Ġhome": 2619,
      "Ġlit": 2620,
      "Ġlim": 2621,
      "Ġlack": 2622,
      "Ġlook": 2623,
      "Ġnam": 2624,
      "Ġnorm": 2625,
      "Ġproper": 2626,
      "unks": 2627,
      "Ġdeterm": 2628,
      "ula": 2629,
      "Ġgen": 2630,
      "Ġgain": 2631,
      "Ġonly": 2632,
      "Ġstore": 2633,
      "dict": 2634,
      "Ġmag": 2635,
      "adigm": 2636,
      "Ġunivers": 2637,
      "Ġchunks": 2638,
      "There": 2639,
      "Ġfunctions": 2640,
      "cessary": 2641,
      "Ġsecon": 2642,
      "Ġsegment": 2643,
      "answer": 2644,
      "Ġtrust": 2645,
      "Ġapology": 2646,
      "ney": 2647,
      "Ġadapt": 2648,
      "Ġ10": 2649,
      "Ġquant": 2650,
      "Ġqueries": 2651,
      "Ġclimate": 2652,
      "Ġtranscribe": 2653,
      "ĠCSS": 2654,
      "Ġgeneral": 2655,
      "Ġstrings": 2656,
      "ĠJap": 2657,
      "Ġsmart": 2658,
      "Ġregression": 2659,
      "Ġparties": 2660,
      "Ġdeveloping": 2661,
      "Ġdevelopers": 2662,
      "Ġpoem": 2663,
      "Ġwritten": 2664,
      "ommon": 2665,
      "Ġoptions": 2666,
      "Ġcompare": 2667,
      "Ġplays": 2668,
      "Ġmaintaining": 2669,
      "Ġpurpos": 2670,
      "Ġseeking": 2671,
      "Ġengagement": 2672,
      "Ġparticipation": 2673,
      "Ġavail": 2674,
      "Ġparty": 2675,
      "Ġparadigm": 2676,
      "Ġclearly": 2677,
      "Ġrecordings": 2678,
      "Ġrequire": 2679,
      "Ġinstall": 2680,
      "Ġgreetings": 2681,
      "Ġissues": 2682,
      "Ġefficiency": 2683,
      "Image": 2684,
      "Ġsensors": 2685,
      "Ġplatforms": 2686,
      "Ġtallest": 2687,
      "Ġminim": 2688,
      "Ġnavigation": 2689,
      "ifier": 2690,
      "Ġdemonstr": 2691,
      "Ġcustomer": 2692,
      "ĠSpeechRecognition": 2693,
      "horized": 2694,
      "Ġanswering": 2695,
      "Ġcaused": 2696,
      "pendent": 2697,
      "arcasm": 2698,
      "Ġboost": 2699,
      "Ġmovies": 2700,
      "Ġphrases": 2701,
      "Ġsuggestions": 2702,
      "otosynthesis": 2703,
      "Ġlargest": 2704,
      "ĠJohn": 2705,
      "ĠUnsupervised": 2706,
      "nwith": 2707,
      "Ġtomorrow": 2708,
      "ĠJapan": 2709,
      "Ġpurposes": 2710,
      "'ll": 2711,
      "))\\": 2712,
      "AM": 2713,
      "Ar": 2714,
      "Flow": 2715,
      "GR": 2716,
      "LO": 2717,
      "Pri": 2718,
      "Reg": 2719,
      "St": 2720,
      "Te": 2721,
      "apture": 2722,
      "dge": 2723,
      "flow": 2724,
      "lus": 2725,
      "mid": 2726,
      "making": 2727,
      "ndef": 2728,
      "oin": 2729,
      "ppen": 2730,
      "sign": 2731,
      "taking": 2732,
      "valu": 2733,
      "world": 2734,
      "wait": 2735,
      "yn": 2736,
      "Ġess": 2737,
      "ined": 2738,
      "Ġaid": 2739,
      "Ġtip": 2740,
      "util": 2741,
      "ately": 2742,
      "Ġcir": 2743,
      "Ġcertain": 2744,
      "requ": 2745,
      "Ġsus": 2746,
      "Ġsil": 2747,
      "Ġsessions": 2748,
      "enience": 2749,
      "leep": 2750,
      "isa": 2751,
      "Ġpiece": 2752,
      "aling": 2753,
      "Ġanother": 2754,
      "Ġmon": 2755,
      "Ġwin": 2756,
      "roy": 2757,
      "Ġbri": 2758,
      "Ġburn": 2759,
      "Ġreus": 2760,
      "Ġdri": 2761,
      "Ġdark": 2762,
      "Ġec": 2763,
      "Ġharm": 2764,
      "Ġliv": 2765,
      "chan": 2766,
      "thet": 2767,
      "ception": 2768,
      "ĠIs": 2769,
      "Ġcompre": 2770,
      "Ġcomponents": 2771,
      "olor": 2772,
      "istic": 2773,
      "lying": 2774,
      "Ġleg": 2775,
      "Ġlevel": 2776,
      "Ġaltern": 2777,
      "Ġenable": 2778,
      "Ġmax": 2779,
      "ĠAns": 2780,
      "Ġmeans": 2781,
      "Ġmechan": 2782,
      "acks": 2783,
      "idance": 2784,
      "ives": 2785,
      "ems": 2786,
      "Ġreturns": 2787,
      "Ġinconv": 2788,
      "Ġsyllables": 2789,
      "agree": 2790,
      "Ġapp": 2791,
      "Ġhapp": 2792,
      "Ġhappen": 2793,
      "ffect": 2794,
      "Ġincluding": 2795,
      "oss": 2796,
      "ĠFocus": 2797,
      "ourney": 2798,
      "iquet": 2799,
      "Ġquick": 2800,
      "Ġemb": 2801,
      "Ġdevice": 2802,
      "enerate": 2803,
      "Ġdisplay": 2804,
      "Ġdisagree": 2805,
      "Ġinformed": 2806,
      "case": 2807,
      "ĠLisa": 2808,
      "ĠTrue": 2809,
      "ĠTensor": 2810,
      "Ġkeyword": 2811,
      "Ġhandling": 2812,
      "Ġelif": 2813,
      "Ġcolor": 2814,
      "ĠEarth": 2815,
      "Ġreflect": 2816,
      "Ġrespond": 2817,
      "Ġcope": 2818,
      "Ġreading": 2819,
      "Ġreaders": 2820,
      "Ġmemor": 2821,
      "Ġcompan": 2822,
      "Ġcomprom": 2823,
      "Ġsave": 2824,
      "Ġbeneficial": 2825,
      "ĠDis": 2826,
      "Ġtrying": 2827,
      "Ġbuilt": 2828,
      "ĠWe": 2829,
      "Ġactivities": 2830,
      "Ġ//": 2831,
      "Ġenvironments": 2832,
      "Ġresponses": 2833,
      "Ġresponsibility": 2834,
      "Ġinstead": 2835,
      "Ġconcer": 2836,
      "Ġconcent": 2837,
      "Ġbehaviors": 2838,
      "Ġtalk": 2839,
      "Ġdialects": 2840,
      "Ġerrors": 2841,
      "Ġreduce": 2842,
      "Ġrecursion": 2843,
      "Ġfollowed": 2844,
      "features": 2845,
      "recognition": 2846,
      "recognize": 2847,
      "Ġreceived": 2848,
      "Ġguidance": 2849,
      "Ġviewers": 2850,
      "Ġappear": 2851,
      "Deep": 2852,
      "Ġversion": 2853,
      "Ġbreathing": 2854,
      "CNNs": 2855,
      "Ġradi": 2856,
      "Ġeverything": 2857,
      "Ġdetails": 2858,
      "Ġchanges": 2859,
      "Ġencryption": 2860,
      "Ġinflu": 2861,
      "Ġcompliments": 2862,
      "Ġcolleagues": 2863,
      "Ġexercis": 2864,
      "Ġindependent": 2865,
      "ĠQuestion": 2866,
      "ĠMona": 2867,
      "Ġbugs": 2868,
      "Ġpersuasive": 2869,
      "Autonomy": 2870,
      "Ġetiquet": 2871,
      "Ġnormal": 2872,
      "requency": 2873,
      "Ġcompreh": 2874,
      "ĠAnswering": 2875,
      "ĠTensorFlow": 2876,
      "']": 2877,
      "'),": 2878,
      "All": 2879,
      "Common": 2880,
      "Gest": 2881,
      "Key": 2882,
      "Sorry": 2883,
      "TT": 2884,
      "Wind": 2885,
      "[::": 2886,
      "].\"}": 2887,
      "ale": 2888,
      "ape": 2889,
      "bo": 2890,
      "bble": 2891,
      "cing": 2892,
      "ced": 2893,
      "eper": 2894,
      "factor": 2895,
      "face": 2896,
      "friend": 2897,
      "google": 2898,
      "good": 2899,
      "head": 2900,
      "ier": 2901,
      "mary": 2902,
      "neng": 2903,
      "nited": 2904,
      "ov": 2905,
      "pri": 2906,
      "rast": 2907,
      "sing": 2908,
      "ument": 2909,
      "ules": 2910,
      "ys": 2911,
      "Ġ>": 2912,
      "Ġest": 2913,
      "init": 2914,
      "Ġaffect": 2915,
      "Ġtf": 2916,
      "Ġtri": 2917,
      "Ġtension": 2918,
      "atis": 2919,
      "ativity": 2920,
      "Ġcross": 2921,
      "relation": 2922,
      "Ġsust": 2923,
      "Ġsolut": 2924,
      "Ġsatis": 2925,
      "ended": 2926,
      "ann": 2927,
      "Ġps": 2928,
      "Ġfl": 2929,
      "Ġfost": 2930,
      "Ġfoot": 2931,
      "Ġinfer": 2932,
      "Ġanything": 2933,
      "Ġmut": 2934,
      "Ġmir": 2935,
      "Ġwater": 2936,
      "Ġopport": 2937,
      "owels": 2938,
      "rop": 2939,
      "arting": 2940,
      "Ġrepet": 2941,
      "imshow": 2942,
      "Ġdom": 2943,
      "Ġhero": 2944,
      "change": 2945,
      "odes": 2946,
      "Ġusually": 2947,
      "Ġdep": 2948,
      "known": 2949,
      "Ġimpair": 2950,
      "Ġcond": 2951,
      "Ġconcise": 2952,
      "Ġexchange": 2953,
      "essage": 2954,
      "aming": 2955,
      "diom": 2956,
      "Ġlecture": 2957,
      "Ġalt": 2958,
      "Ġaspect": 2959,
      "question": 2960,
      "ĠAl": 2961,
      "Ġbegin": 2962,
      "aces": 2963,
      "Ġsup": 2964,
      "idth": 2965,
      "plit": 2966,
      "Ġchoo": 2967,
      "This": 2968,
      "Ġnecessary": 2969,
      "Ġsynt": 2970,
      "):\\\\": 2971,
      "ognitive": 2972,
      "ĠSlide": 2973,
      "bjects": 2974,
      "ĠThen": 2975,
      "Ġplural": 2976,
      "crib": 2977,
      "Ġprovided": 2978,
      "soft": 2979,
      "Ġclos": 2980,
      "Ġimplemented": 2981,
      "Ġsorting": 2982,
      "Ġmanip": 2983,
      "Ġevalu": 2984,
      "Ġevolution": 2985,
      "ĠRecogn": 2986,
      "Ġsimulation": 2987,
      "Ġscient": 2988,
      "point": 2989,
      "vision": 2990,
      "Ġkeywords": 2991,
      "ishing": 2992,
      "Ġregional": 2993,
      "Ġworked": 2994,
      "Ġthroughout": 2995,
      "Ġbubble": 2996,
      "Ġhear": 2997,
      "Ġhead": 2998,
      "Ġpost": 2999,
      "Ġjob": 3000,
      "Ġwebsites": 3001,
      "Ġtravel": 3002,
      "ĠOut": 3003,
      "Ġfacial": 3004,
      "Ġsafe": 3005,
      "Ġengaged": 3006,
      "ĠWorld": 3007,
      "Ġappropri": 3008,
      "comes": 3009,
      "Ġdesigning": 3010,
      "listen": 3011,
      "ĠNL": 3012,
      "Ġmedical": 3013,
      "Ġpromote": 3014,
      "Ġinterrupt": 3015,
      "cont": 3016,
      "ĠUnited": 3017,
      "Ġblack": 3018,
      "ĠVisual": 3019,
      "Ġbelie": 3020,
      "Ġoffering": 3021,
      "Ġlinear": 3022,
      "ocket": 3023,
      "Ġenvironmental": 3024,
      "Ġminut": 3025,
      "Ġnegative": 3026,
      "Ġstands": 3027,
      "Ġstudents": 3028,
      "Ġnavigate": 3029,
      "Recognizer": 3030,
      "itude": 3031,
      "ified": 3032,
      "...": 3033,
      "Ġmeaningful": 3034,
      "Ġvivid": 3035,
      "Ġpossible": 3036,
      "Ġcharacter": 3037,
      "Ġcharacters": 3038,
      "Goodbye": 3039,
      "Ġdeadline": 3040,
      "Ġreminder": 3041,
      "aneously": 3042,
      "destroy": 3043,
      "Ġnervous": 3044,
      "Ġrecipient": 3045,
      "ecursion": 3046,
      "Ġmoment": 3047,
      "ometimes": 3048,
      "Ġplanet": 3049,
      "Ġoccurs": 3050,
      "Ġautomatically": 3051,
      "keras": 3052,
      "Ġsegmentation": 3053,
      "Artificial": 3054,
      "Telepresence": 3055,
      "signal": 3056,
      "waitKey": 3057,
      "Ġessential": 3058,
      "Ġaids": 3059,
      "Ġcircle": 3060,
      "Ġbrief": 3061,
      "Ġmechanisms": 3062,
      "Ġinconvenience": 3063,
      "Ġmemorable": 3064,
      "AllWind": 3065,
      "Gesture": 3066,
      "[::-": 3067,
      "friendly": 3068,
      "nengine": 3069,
      "Ġsustain": 3070,
      "Ġsolutions": 3071,
      "Ġmirror": 3072,
      "Ġopportun": 3073,
      "Ġimpairments": 3074,
      "Ġchoose": 3075,
      "Ġsyntax": 3076,
      "Ġappropriate": 3077,
      "destroyAllWind": 3078,
      "destroyAllWindows": 3079,
      "':": 3080,
      "'d": 3081,
      "25": 3082,
      ":,": 3083,
      "=='": 3084,
      ">\"}": 3085,
      "Edge": 3086,
      "Generate": 3087,
      "Microphone": 3088,
      "Oh": 3089,
      "QA": 3090,
      "TK": 3091,
      "Will": 3092,
      "['": 3093,
      "au": 3094,
      "core": 3095,
      "do": 3096,
      "from": 3097,
      "iam": 3098,
      "iri": 3099,
      "ml": 3100,
      "mass": 3101,
      "ners": 3102,
      "nvideo": 3103,
      "of": 3104,
      "oper": 3105,
      "oye": 3106,
      "ration": 3107,
      "ric": 3108,
      "sive": 3109,
      "send": 3110,
      "ta": 3111,
      "tle": 3112,
      "til": 3113,
      "uz": 3114,
      "volution": 3115,
      "Ġvery": 3116,
      "Ġ\"'": 3117,
      "Ġ\"<": 3118,
      "Ġ\"{\\\"": 3119,
      "Ġaf": 3120,
      "Ġtensor": 3121,
      "Ġcell": 3122,
      "Ġcatch": 3123,
      "Ġsty": 3124,
      "Ġsun": 3125,
      "Ġsinc": 3126,
      "Ġsometimes": 3127,
      "eness": 3128,
      "Ġthings": 3129,
      "dem": 3130,
      "ising": 3131,
      "Ġpress": 3132,
      "Ġpath": 3133,
      "Ġfur": 3134,
      "Ġfound": 3135,
      "Ġfron": 3136,
      "itoring": 3137,
      "Ġinstru": 3138,
      "Ġtheta": 3139,
      "Ġmor": 3140,
      "Ġmust": 3141,
      "Ġmass": 3142,
      "Ġmatch": 3143,
      "Ġmolar": 3144,
      "Ġwal": 3145,
      "Ġob": 3146,
      "owing": 3147,
      "array": 3148,
      "arReg": 3149,
      "Ġbi": 3150,
      "Ġreli": 3151,
      "Ġreply": 3152,
      "ompl": 3153,
      "Ġdig": 3154,
      "Ġdail": 3155,
      "Ġdyn": 3156,
      "Ġhon": 3157,
      "Ġhard": 3158,
      "thical": 3159,
      "vious": 3160,
      "Ġgot": 3161,
      "Ġgram": 3162,
      "Ġgather": 3163,
      "ĠPer": 3164,
      "ĠPlease": 3165,
      "Ġexist": 3166,
      "Ġwhy": 3167,
      "otely": 3168,
      "Ġvoc": 3169,
      "Ġvalid": 3170,
      "Ġfew": 3171,
      "Ġunaut": 3172,
      "Ġuntil": 3173,
      "respon": 3174,
      "ploye": 3175,
      "inearReg": 3176,
      "Ġchann": 3177,
      "ains": 3178,
      "Ġsec": 3179,
      "Ġselection": 3180,
      "Ġweight": 3181,
      "iration": 3182,
      "Ġcake": 3183,
      "Ġmoving": 3184,
      "Ġintervent": 3185,
      "Ġnext": 3186,
      "Ġcontrast": 3187,
      "Ġtechnical": 3188,
      "agine": 3189,
      "enda": 3190,
      "Ġappre": 3191,
      "Ġresolution": 3192,
      "ĠSome": 3193,
      "racts": 3194,
      "ultaneously": 3195,
      "Ġprevious": 3196,
      "Ġeffort": 3197,
      "ording": 3198,
      "Ġincludes": 3199,
      "ique": 3200,
      "fully": 3201,
      "ologies": 3202,
      "Ġrecognizing": 3203,
      "idea": 3204,
      "Ġsimply": 3205,
      "Ġsimultaneously": 3206,
      "Ġprice": 3207,
      "ĠCloud": 3208,
      "ĠLinearReg": 3209,
      "Ġprogrammers": 3210,
      "ĠTake": 3211,
      "ĠTry": 3212,
      "Ġengines": 3213,
      "akespe": 3214,
      "ĠHave": 3215,
      "()'": 3216,
      "Ġupon": 3217,
      "Ġupper": 3218,
      "ĠJSO": 3219,
      "Ġremotely": 3220,
      "encing": 3221,
      "Ġdeveloper": 3222,
      "Ġ**": 3223,
      "Ġreality": 3224,
      "Ġworkload": 3225,
      "Ġbasic": 3226,
      "ĠEach": 3227,
      "Ġheight": 3228,
      "Ġsummary": 3229,
      "Ġlisteners": 3230,
      "aps": 3231,
      "apy": 3232,
      "Ġpatient": 3233,
      "Ġsettings": 3234,
      "Ġnature": 3235,
      "Ġtradition": 3236,
      "Ġformula": 3237,
      "Ġthanks": 3238,
      "cale": 3239,
      "ciation": 3240,
      "Ġphotosynthesis": 3241,
      "Ġphys": 3242,
      "Ġattacks": 3243,
      "Ġattracts": 3244,
      "Ġsrc": 3245,
      "Ġconversations": 3246,
      "Ġdetecting": 3247,
      "Ġdetected": 3248,
      "ributes": 3249,
      "Ġload": 3250,
      "Ġdebates": 3251,
      "Ġsupportive": 3252,
      "ĠWould": 3253,
      "Ġvaluable": 3254,
      "shape": 3255,
      "Ġsaying": 3256,
      "coming": 3257,
      "Ġleader": 3258,
      "Ġrelationship": 3259,
      "Ġcollaborate": 3260,
      "Ġ{\\": 3261,
      "Ġthought": 3262,
      "Ġinterpretation": 3263,
      "Ġinsights": 3264,
      "Ġblind": 3265,
      "Ġresponsive": 3266,
      "Ġmindful": 3267,
      "Ġautomate": 3268,
      "Ġoperators": 3269,
      "Ġargument": 3270,
      "Ġmentor": 3271,
      "Ġmistakes": 3272,
      "Ġbring": 3273,
      "Ġdescriptive": 3274,
      "Ġkeeping": 3275,
      "pping": 3276,
      "Ġrecursive": 3277,
      "Ġinteractive": 3278,
      "Ġreceiving": 3279,
      "Ġpasswords": 3280,
      "NLP": 3281,
      "Ġidiom": 3282,
      "Ġindicate": 3283,
      "ĠShakespe": 3284,
      "Ġinspired": 3285,
      "Ġdiscussions": 3286,
      "Ġwatching": 3287,
      "Ġcaptiv": 3288,
      "Ġincorporate": 3289,
      "speaking": 3290,
      "Ġtesting": 3291,
      "Ġconnection": 3292,
      "Ġadjust": 3293,
      "Ġcamer": 3294,
      "Ġclient": 3295,
      "Ġslang": 3296,
      "Ġfully": 3297,
      "argument": 3298,
      "Ġincreasing": 3299,
      "Ġdiscover": 3300,
      "Ġparameters": 3301,
      "Ġopinions": 3302,
      "Ġpainted": 3303,
      "values": 3304,
      "Ġmonitoring": 3305,
      "Ġburnout": 3306,
      "Ġliving": 3307,
      "Ġquickly": 3308,
      "Ġcompromise": 3309,
      "ĠDisplay": 3310,
      "Ġconcerns": 3311,
      "Ġexercises": 3312,
      "Ġetiquette": 3313,
      "board": 3314,
      "Ġsatisf": 3315,
      "ĠOutput": 3316,
      "William": 3317,
      "uzz": 3318,
      "Ġtensorflow": 3319,
      "Ġfurther": 3320,
      "Ġfront": 3321,
      "Ġdaily": 3322,
      "Ġdynam": 3323,
      "Ġgrammar": 3324,
      "Ġunauthorized": 3325,
      "Ġintervention": 3326,
      "ĠLinearRegression": 3327,
      "ĠJSONL": 3328,
      "Ġtraditional": 3329,
      "ĠShakespeare": 3330,
      "!'": 3331,
      ");\\": 3332,
      ",\\": 3333,
      "16": 3334,
      "100": 3335,
      ";\"}": 3336,
      "AP": 3337,
      "Active": 3338,
      "ASL": 3339,
      "EO": 3340,
      "Hi": 3341,
      "No": 3342,
      "Over": 3343,
      "Requ": 3344,
      "Recursion": 3345,
      "Sc": 3346,
      "Say": 3347,
      "Un": 3348,
      "Valu": 3349,
      "\\\"}": 3350,
      "ae": 3351,
      "cking": 3352,
      "cument": 3353,
      "data": 3354,
      "eep": 3355,
      "eError": 3356,
      "function": 3357,
      "he": 3358,
      "had": 3359,
      "ix": 3360,
      "jud": 3361,
      "ler": 3362,
      "late": 3363,
      "lay": 3364,
      "lines": 3365,
      "ming": 3366,
      "mers": 3367,
      "message": 3368,
      "nce": 3369,
      "nimage": 3370,
      "ole": 3371,
      "run": 3372,
      "random": 3373,
      "socket": 3374,
      "score": 3375,
      "tes": 3376,
      "times": 3377,
      "vable": 3378,
      "wor": 3379,
      "yper": 3380,
      "ĠY": 3381,
      "Ġz": 3382,
      "ĠWh": 3383,
      "Ġaway": 3384,
      "Ġtact": 3385,
      "Ġtrue": 3386,
      "Ġtorch": 3387,
      "onic": 3388,
      "ats": 3389,
      "atter": 3390,
      "atural": 3391,
      "Ġcar": 3392,
      "Ġconvers": 3393,
      "reate": 3394,
      "rease": 3395,
      "ingers": 3396,
      "Ġsources": 3397,
      "Ġsarcasm": 3398,
      "Ġther": 3399,
      "dev": 3400,
      "Ġpm": 3401,
      "itate": 3402,
      "Ġtheory": 3403,
      "Ġmode": 3404,
      "Ġmam": 3405,
      "Ġmodal": 3406,
      "Ġmicroph": 3407,
      "Ġwere": 3408,
      "Ġbar": 3409,
      "Ġbook": 3410,
      "Ġrest": 3411,
      "Ġrebut": 3412,
      "Ġrelease": 3413,
      "imum": 3414,
      "imread": 3415,
      "icip": 3416,
      "Ġevid": 3417,
      "Ġethical": 3418,
      "Ġhole": 3419,
      "Ġloo": 3420,
      "Ġlaw": 3421,
      "ceed": 3422,
      "Ġnp": 3423,
      "Ġforward": 3424,
      "Ġprot": 3425,
      "Ġimmers": 3426,
      "unciation": 3427,
      "Ġdeeper": 3428,
      "Ġcomfort": 3429,
      "etting": 3430,
      "ulating": 3431,
      "ols": 3432,
      "Ġconst": 3433,
      "ctionary": 3434,
      "ilar": 3435,
      "Ġones": 3436,
      "Ġstarting": 3437,
      "Ġexpect": 3438,
      "Ġextern": 3439,
      "dia": 3440,
      "Ġlet": 3441,
      "Ġlectures": 3442,
      "Ġteach": 3443,
      "Ġalong": 3444,
      "ials": 3445,
      "abular": 3446,
      "Ġmapping": 3447,
      "quare": 3448,
      "vert": 3449,
      "rive": 3450,
      "Ġbecome": 3451,
      "Ġbeaut": 3452,
      "izes": 3453,
      "Ġvary": 3454,
      "Ġvowels": 3455,
      "estError": 3456,
      "Ġunse": 3457,
      "Ġunique": 3458,
      "format": 3459,
      "perature": 3460,
      "Ġdocument": 3461,
      "ird": 3462,
      "Ġcapture": 3463,
      "Ġmood": 3464,
      "Ġinterv": 3465,
      "Ġcreativity": 3466,
      "Ġarm": 3467,
      "Ġtechnologies": 3468,
      "ends": 3469,
      "Ġacross": 3470,
      "Ġhaik": 3471,
      "opic": 3472,
      "Ġreson": 3473,
      "Ġcalled": 3474,
      "Ġsharing": 3475,
      "ĠSout": 3476,
      "Ġplants": 3477,
      "sole": 3478,
      "Ġ12": 3479,
      "Ġinvitation": 3480,
      "Ġdescribe": 3481,
      "ĠRead": 3482,
      "Ġsimpl": 3483,
      "Ġsimilar": 3484,
      "Ġprinci": 3485,
      "ĠConv": 3486,
      "upper": 3487,
      "casts": 3488,
      "ĠLe": 3489,
      "ensive": 3490,
      "ensity": 3491,
      "Ġgeneration": 3492,
      "Ġhands": 3493,
      "ĠMicro": 3494,
      "Ġcolors": 3495,
      "().": 3496,
      "Ġvisuals": 3497,
      "Ġassign": 3498,
      "Ġparts": 3499,
      "Ġnote": 3500,
      "Ġhearing": 3501,
      "predict": 3502,
      "Ġwilling": 3503,
      "Ġoutcomes": 3504,
      "Ġsignal": 3505,
      "Ġadding": 3506,
      "Ġ+=": 3507,
      "Ġjoin": 3508,
      "Ġjourney": 3509,
      "Ġrelated": 3510,
      "Ġmember": 3511,
      "ciate": 3512,
      "ĠInitial": 3513,
      "Ġmaintainable": 3514,
      "Ġfacil": 3515,
      "ntry": 3516,
      "Ġnovel": 3517,
      "Ġlove": 3518,
      "angle": 3519,
      "Ġextra": 3520,
      "Ġactivation": 3521,
      "Ġparticipating": 3522,
      "nfor": 3523,
      "Ġoptimal": 3524,
      "Ġclassification": 3525,
      "Ġcorrelation": 3526,
      "ĠNe": 3527,
      "Ġidea": 3528,
      "Ġcollaborating": 3529,
      "Ġfiles": 3530,
      "Ġpodcasts": 3531,
      "Ġgreeting": 3532,
      "ternet": 3533,
      "Ġsensitive": 3534,
      "Ġmodule": 3535,
      "Ġinterests": 3536,
      "Ġlayout": 3537,
      "Ġfriends": 3538,
      "Ġeasy": 3539,
      "Ġeasily": 3540,
      "Ġeasier": 3541,
      "Ġfollowing": 3542,
      "Ġdemand": 3543,
      "Ġproducts": 3544,
      "ĠAustralian": 3545,
      "Ġdictionary": 3546,
      "Ġclarity": 3547,
      "Ġupdate": 3548,
      "password": 3549,
      "Ġmisund": 3550,
      "Ġchords": 3551,
      "Ġefficiently": 3552,
      "Dear": 3553,
      "ĠImplement": 3554,
      "lassifier": 3555,
      "Ġlogical": 3556,
      "Ġdeadlines": 3557,
      "Ġcultural": 3558,
      "Ġachievable": 3559,
      "Ġincorporating": 3560,
      ".\\\"}": 3561,
      "Constructive": 3562,
      "example": 3563,
      "Ġhike": 3564,
      "Ġtransforms": 3565,
      "Ġamounts": 3566,
      "Ġdiversity": 3567,
      "ĠPrejud": 3568,
      "Ġchemical": 3569,
      "Ġstatistics": 3570,
      "Ġsignificantly": 3571,
      "written": 3572,
      "Ġfilter": 3573,
      "Ġpreprocessing": 3574,
      "Ġpronunciation": 3575,
      "oreshad": 3576,
      "Ġnames": 3577,
      "Ġmagical": 3578,
      "Ġavailable": 3579,
      "Ġminimal": 3580,
      "Pride": 3581,
      "Ġsilence": 3582,
      "Ġreusable": 3583,
      "theta": 3584,
      "Ġcomprehension": 3585,
      "Ġrepetitive": 3586,
      "knownValu": 3587,
      "Ġbeginners": 3588,
      "Ġminutes": 3589,
      "...')\\": 3590,
      "demption": 3591,
      "Ġmorning": 3592,
      "Ġdigital": 3593,
      "Ġhonest": 3594,
      "ĠPerform": 3595,
      "Ġvocabular": 3596,
      "Ġappreciate": 3597,
      "Overfitting": 3598,
      "RequestError": 3599,
      "UnknownValu": 3600,
      "Ġmodalities": 3601,
      "Ġmicrophones": 3602,
      "Ġevidence": 3603,
      "Ġexternal": 3604,
      "Ġunseen": 3605,
      "Ġhaiku": 3606,
      "Ġprinciple": 3607,
      "ĠMicrosoft": 3608,
      "ĠInitialize": 3609,
      "Ġmisunderstand": 3610,
      "ĠPrejudice": 3611,
      "oreshadowing": 3612,
      "UnknownValueError": 3613,
      "10": 3614,
      "?'": 3615,
      "Al": 3616,
      "Broadcasting": 3617,
      "Certain": 3618,
      "Capture": 3619,
      "Classifier": 3620,
      "Des": 3621,
      "ER": 3622,
      "Fe": 3623,
      "Have": 3624,
      "OLO": 3625,
      "QL": 3626,
      "Sound": 3627,
      "Text": 3628,
      "ai": 3629,
      "ade": 3630,
      "action": 3631,
      "bt": 3632,
      "body": 3633,
      "cv": 3634,
      "cer": 3635,
      "cending": 3636,
      "effic": 3637,
      "fect": 3638,
      "ients": 3639,
      "jection": 3640,
      "las": 3641,
      "lob": 3642,
      "mal": 3643,
      "mos": 3644,
      "ny": 3645,
      "nov": 3646,
      "nThis": 3647,
      "oos": 3648,
      "ping": 3649,
      "sa": 3650,
      "son": 3651,
      "sound": 3652,
      "size": 3653,
      "speech": 3654,
      "sentiment": 3655,
      "split": 3656,
      "tem": 3657,
      "upl": 3658,
      "uous": 3659,
      "}'.": 3660,
      "Ġ8": 3661,
      "Ġutil": 3662,
      "Ġupl": 3663,
      "ins": 3664,
      "inks": 3665,
      "Ġtakes": 3666,
      "ony": 3667,
      "onard": 3668,
      "erge": 3669,
      "revers": 3670,
      "Ġsem": 3671,
      "Ġseries": 3672,
      "puter": 3673,
      "enal": 3674,
      "let": 3675,
      "lex": 3676,
      "levision": 3677,
      "Ġpay": 3678,
      "Ġpip": 3679,
      "Ġpast": 3680,
      "Ġpenal": 3681,
      "Ġfails": 3682,
      "Ġfingers": 3683,
      "itch": 3684,
      "itment": 3685,
      "oubt": 3686,
      "alse": 3687,
      "Ġtoler": 3688,
      "outer": 3689,
      "Ġmight": 3690,
      "Ġmater": 3691,
      "Ġwent": 3692,
      "Ġwind": 3693,
      "rost": 3694,
      "robot": 3695,
      "Ġbal": 3696,
      "Ġbul": 3697,
      "Ġreward": 3698,
      "icy": 3699,
      "icating": 3700,
      "usting": 3701,
      "Ġda": 3702,
      "Ġear": 3703,
      "Ġhist": 3704,
      "Ġhope": 3705,
      "Ġlot": 3706,
      "Ġlive": 3707,
      "Ġlines": 3708,
      "Ġlast": 3709,
      "Ġlater": 3710,
      "cefully": 3711,
      "ash": 3712,
      "ascade": 3713,
      "Ġproced": 3714,
      "uration": 3715,
      "Ġcome": 3716,
      "Ġcompet": 3717,
      "etic": 3718,
      "Ġconfer": 3719,
      "Ġconsole": 3720,
      "Ġstage": 3721,
      "Ġstill": 3722,
      "Ġstop": 3723,
      "key": 3724,
      "ptim": 3725,
      "stand": 3726,
      "stac": 3727,
      "lyrics": 3728,
      "iginal": 3729,
      "Ġlever": 3730,
      "Ġleft": 3731,
      "Ġinteg": 3732,
      "Ġtelevision": 3733,
      ":\\\\": 3734,
      "verest": 3735,
      "ĠASL": 3736,
      "Ġvoices": 3737,
      "Ġcommitment": 3738,
      "iveness": 3739,
      "result": 3740,
      "Ġretention": 3741,
      "Ġchoices": 3742,
      "Thank": 3743,
      "Ġfunctionality": 3744,
      "sequence": 3745,
      "Ġdatab": 3746,
      "ipment": 3747,
      "Ġabs": 3748,
      "Ġabilities": 3749,
      "Ġinclus": 3750,
      "Ġcreators": 3751,
      "Ġlistener": 3752,
      "Ġarch": 3753,
      "Ġarms": 3754,
      "ager": 3755,
      "ighting": 3756,
      "Ġapply": 3757,
      "oph": 3758,
      "ĠSQL": 3759,
      "rame": 3760,
      "olved": 3761,
      "Ġcomputational": 3762,
      "ĠThings": 3763,
      "Ġplot": 3764,
      "Ġpret": 3765,
      "Ġtextual": 3766,
      "Ġatmos": 3767,
      "Ġinvest": 3768,
      "Ġemploye": 3769,
      "Ġdescrib": 3770,
      "Ġperce": 3771,
      "ideas": 3772,
      "Ġtransition": 3773,
      "duction": 3774,
      "Ġscik": 3775,
      "alyz": 3776,
      "Ġwebvtt": 3777,
      "Ġaccompl": 3778,
      "ĠCons": 3779,
      "cascade": 3780,
      "Ġspecified": 3781,
      "Ġcommunity": 3782,
      "Ġcollect": 3783,
      "Ġcollection": 3784,
      "Ġvisualization": 3785,
      "Ġremove": 3786,
      "Ġsmile": 3787,
      "Ġsmoo": 3788,
      "Ġrealistic": 3789,
      "aving": 3790,
      "Ġbase": 3791,
      "ĠEverest": 3792,
      "Ġconcepts": 3793,
      "Ġroom": 3794,
      "Ġcomplete": 3795,
      "apology": 3796,
      "Ġoutcome": 3797,
      "Ġresponding": 3798,
      "Ġsignals": 3799,
      "Ġcost": 3800,
      "Ġcoher": 3801,
      "Ġprints": 3802,
      "less": 3803,
      "Ġreadability": 3804,
      "label": 3805,
      "Ġidentity": 3806,
      "Ġhighl": 3807,
      "berra": 3808,
      "Ġtraits": 3809,
      "Ġtraffic": 3810,
      "Ġwriter": 3811,
      "phere": 3812,
      "),\\": 3813,
      "Ġstructures": 3814,
      "Ġcompound": 3815,
      "Ġphishing": 3816,
      "Ġpopulation": 3817,
      "Ġinputs": 3818,
      "ĠIndia": 3819,
      "ĠInternet": 3820,
      "Ġparticular": 3821,
      "Ġattention": 3822,
      "ĠGit": 3823,
      "Ġknowing": 3824,
      "Ġpeace": 3825,
      "Ġteams": 3826,
      "Ġhash": 3827,
      "Ġstaying": 3828,
      "Ġadvent": 3829,
      "Ġagenda": 3830,
      "Ġdebu": 3831,
      "ĠAdd": 3832,
      "number": 3833,
      "Ġparticipate": 3834,
      "shank": 3835,
      "Ġorganization": 3836,
      "Ġclassify": 3837,
      "Ġclassifying": 3838,
      "chedule": 3839,
      "Ġexpression": 3840,
      "Ġbehind": 3841,
      "Ġdefine": 3842,
      "Ġdefining": 3843,
      "Ġstarted": 3844,
      "Ġdistribution": 3845,
      "Ġpromot": 3846,
      "Ġchecks": 3847,
      "Ġinterruption": 3848,
      "Ġblock": 3849,
      "roadcast": 3850,
      "Ġstrategy": 3851,
      "ourage": 3852,
      "ĠAmaz": 3853,
      "Imagine": 3854,
      "Ġcritical": 3855,
      "Ġmodular": 3856,
      "Ġoperator": 3857,
      "Ġrobotic": 3858,
      "Ġinterviews": 3859,
      "Ġframes": 3860,
      "Ġstandard": 3861,
      "Ġgracefully": 3862,
      "Ġreduction": 3863,
      "Ġencouraging": 3864,
      "Ġsurround": 3865,
      "Ġbehavioral": 3866,
      "Ġterm": 3867,
      "Ġdiag": 3868,
      "Ġcombination": 3869,
      "Ġclarification": 3870,
      "Ġpassword": 3871,
      "ratings": 3872,
      "Ġlonger": 3873,
      "Ġstories": 3874,
      "Ġstatements": 3875,
      "VideoCapture": 3876,
      "Ġindust": 3877,
      "Ġwidely": 3878,
      "Ġequipment": 3879,
      "Ġselected": 3880,
      "ĠShaw": 3881,
      "Ġlogic": 3882,
      "Ġchanging": 3883,
      "Ġpreferences": 3884,
      "Ġengineering": 3885,
      "Ġencrypt": 3886,
      "Ġculture": 3887,
      "Ġdecl": 3888,
      "Ġcareer": 3889,
      "ĠStates": 3890,
      "Ġachievements": 3891,
      "Ġhiking": 3892,
      "Ġconnections": 3893,
      "Ġadjusting": 3894,
      "oped": 3895,
      "Ġsingle": 3896,
      "Ġsingular": 3897,
      "Ġmarket": 3898,
      "Ġlatest": 3899,
      "Ġtranslations": 3900,
      "Ġstatistical": 3901,
      "Ġtimer": 3902,
      "Ġsituation": 3903,
      "Ġsituations": 3904,
      "Ġmovements": 3905,
      "ĠRedemption": 3906,
      "Ġconsistent": 3907,
      "Ġrules": 3908,
      "Ġcentral": 3909,
      "Ġdirect": 3910,
      "Ġliter": 3911,
      "Ġsecond": 3912,
      "Ġgeneralize": 3913,
      "Ġdemonstrates": 3914,
      "Ġeconom": 3915,
      "Ġlevels": 3916,
      "Ġmaximum": 3917,
      "Ġhappy": 3918,
      "Ġinfluence": 3919,
      "Ġindependently": 3920,
      "Ġfostering": 3921,
      "Ġdepth": 3922,
      "Ġsupply": 3923,
      "Ġcloser": 3924,
      "Ġevaluate": 3925,
      "ĠRecognition": 3926,
      "Ġscientific": 3927,
      "ĠNLTK": 3928,
      "content": 3929,
      "Ġbelief": 3930,
      "Ġmirroring": 3931,
      "Ġopportunity": 3932,
      "Ġsincere": 3933,
      "Ġpressure": 3934,
      "Ġwalk": 3935,
      "Ġobstac": 3936,
      "Ġuppercase": 3937,
      "Ġphysical": 3938,
      "Ġmindfulness": 3939,
      "Ġcamera": 3940,
      "Ġdynamic": 3941,
      "Scene": 3942,
      "Ġtactics": 3943,
      "Ġconversion": 3944,
      "Ġmammal": 3945,
      "ĠLeonard": 3946,
      "Ġwillingness": 3947,
      "Ġextraction": 3948,
      "Ġvocabulary": 3949,
      "Certainly": 3950,
      "Feedback": 3951,
      "Ġtolerance": 3952,
      "Ġprocedures": 3953,
      "Ġleveraging": 3954,
      "Ġatmosphere": 3955,
      "Ġscikit": 3956,
      "Ġaccomplish": 3957,
      "ĠConsider": 3958,
      "Ġsmooth": 3959,
      "ĠAmazon": 3960,
      "ĠShawshank": 3961,
      "'>\\": 3962,
      "))": 3963,
      ").\"}": 3964,
      "**": 3965,
      "//": 3966,
      "Ap": 3967,
      "Color": 3968,
      "Dense": 3969,
      "IoT": 3970,
      "Mount": 3971,
      "Name": 3972,
      "OP": 3973,
      "OU": 3974,
      "Once": 3975,
      "RNN": 3976,
      "Su": 3977,
      "Self": 3978,
      "Tell": 3979,
      "Time": 3980,
      "Torch": 3981,
      "VQA": 3982,
      "WS": 3983,
      "We": 3984,
      "].": 3985,
      "bound": 3986,
      "bility": 3987,
      "cs": 3988,
      "cor": 3989,
      "cent": 3990,
      "crow": 3991,
      "class": 3992,
      "den": 3993,
      "dom": 3994,
      "dri": 3995,
      "dund": 3996,
      "doubt": 3997,
      "ele": 3998,
      "ether": 3999,
      "fre": 4000,
      "fig": 4001,
      "fely": 4002,
      "gb": 4003,
      "ha": 4004,
      "hent": 4005,
      "io": 4006,
      "ior": 4007,
      "ied": 4008,
      "ires": 4009,
      "ket": 4010,
      "lo": 4011,
      "max": 4012,
      "non": 4013,
      "nms": 4014,
      "nwh": 4015,
      "naudio": 4016,
      "nrobot": 4017,
      "ose": 4018,
      "obe": 4019,
      "objects": 4020,
      "py": 4021,
      "pop": 4022,
      "pace": 4023,
      "qa": 4024,
      "ring": 4025,
      "right": 4026,
      "ser": 4027,
      "sco": 4028,
      "sleep": 4029,
      "uc": 4030,
      "void": 4031,
      "width": 4032,
      "you": 4033,
      "ych": 4034,
      "Ġult": 4035,
      "inating": 4036,
      "inner": 4037,
      "infor": 4038,
      "Ġaward": 4039,
      "Ġtut": 4040,
      "Ġtag": 4041,
      "Ġtree": 4042,
      "Ġtitle": 4043,
      "eria": 4044,
      "aten": 4045,
      "atively": 4046,
      "atitude": 4047,
      "Ġcognitive": 4048,
      "Ġcele": 4049,
      "ref": 4050,
      "release": 4051,
      "Ġsad": 4052,
      "Ġside": 4053,
      "Ġsending": 4054,
      "Ġsolar": 4055,
      "Ġsleep": 4056,
      "ening": 4057,
      "enge": 4058,
      "ennon": 4059,
      "Ġthre": 4060,
      "ana": 4061,
      "anch": 4062,
      "leg": 4063,
      "detect": 4064,
      "Ġpd": 4065,
      "Ġpand": 4066,
      "Ġpresence": 4067,
      "Ġfar": 4068,
      "Ġfun": 4069,
      "Ġfid": 4070,
      "Ġfail": 4071,
      "Ġfood": 4072,
      "Ġfrequency": 4073,
      "Ġfuzz": 4074,
      "itect": 4075,
      "Ġinher": 4076,
      "Ġinjection": 4077,
      "Ġinnov": 4078,
      "esian": 4079,
      "alle": 4080,
      "alities": 4081,
      "ped": 4082,
      "Ġmar": 4083,
      "Ġmel": 4084,
      "Ġmerge": 4085,
      "ariety": 4086,
      "Ġbro": 4087,
      "Ġband": 4088,
      "Ġbact": 4089,
      "Ġbound": 4090,
      "Ġrelying": 4091,
      "Ġredund": 4092,
      "Ġreinfor": 4093,
      "imately": 4094,
      "entence": 4095,
      "icking": 4096,
      "geting": 4097,
      "Ġdial": 4098,
      "Ġdone": 4099,
      "Ġdust": 4100,
      "Ġdraw": 4101,
      "Ġhur": 4102,
      "Ġhol": 4103,
      "Ġhid": 4104,
      "Ġhyper": 4105,
      "Ġlighting": 4106,
      "Ġnodes": 4107,
      "Ġcancer": 4108,
      "Ġdeals": 4109,
      "Which": 4110,
      "ractions": 4111,
      "etry": 4112,
      "Ġglu": 4113,
      "ift": 4114,
      "ifting": 4115,
      "ayesian": 4116,
      "Ġstates": 4117,
      "Ġ'=='": 4118,
      "ams": 4119,
      "Ġintro": 4120,
      "Ġalign": 4121,
      "Ġenough": 4122,
      "Ġmap": 4123,
      "ĠAp": 4124,
      "ĠAr": 4125,
      "ĠAvoid": 4126,
      "Ġitems": 4127,
      "Ġmeas": 4128,
      "oday": 4129,
      "Ġvariety": 4130,
      "acing": 4131,
      "acity": 4132,
      "ĠĠĠĠĠĠ": 4133,
      "Ġfeed": 4134,
      "Ġspecul": 4135,
      "plate": 4136,
      "ounter": 4137,
      "antic": 4138,
      "Ġimproves": 4139,
      "Ġdoctor": 4140,
      "Ġseen": 4141,
      "irst": 4142,
      "Ġhelping": 4143,
      "Ġable": 4144,
      "ints": 4145,
      "Ġincons": 4146,
      "ocking": 4147,
      "Ġart": 4148,
      "Ġarise": 4149,
      "agon": 4150,
      "Ġgoes": 4151,
      "Ġgoal": 4152,
      "ffee": 4153,
      "arecrow": 4154,
      "Ġshot": 4155,
      "ĠSp": 4156,
      "ĠSiri": 4157,
      "ĠSEO": 4158,
      "ĠSetting": 4159,
      "Ġrate": 4160,
      "Ġrates": 4161,
      "Ġrich": 4162,
      "ractice": 4163,
      "Ġcomputation": 4164,
      "blems": 4165,
      "lower": 4166,
      "Ġadm": 4167,
      "ĠFibonacci": 4168,
      "ĠFlas": 4169,
      "ĠFirst": 4170,
      "Ġinvolve": 4171,
      "Ġqualities": 4172,
      "Ġ\\\"'": 4173,
      "',\\": 4174,
      "Ġperfect": 4175,
      "Ġrecognizer": 4176,
      "ĠRandom": 4177,
      "Ġtransport": 4178,
      "nserver": 4179,
      "Ġscal": 4180,
      "Ġscale": 4181,
      "Ġscarecrow": 4182,
      "Ġobjectives": 4183,
      "Ġprim": 4184,
      "ĠLennon": 4185,
      "ĠTrans": 4186,
      "Ġanalyt": 4187,
      "Ġperforms": 4188,
      "Ġgenerated": 4189,
      "Ġgenerator": 4190,
      "Ġkeyboard": 4191,
      "Ġsklearn": 4192,
      "ĠMars": 4193,
      "ĠMachine": 4194,
      "Ġvisualize": 4195,
      "Ġexplore": 4196,
      "enced": 4197,
      "Ġregion": 4198,
      "Ġtheme": 4199,
      "olutely": 4200,
      "Ġexperiment": 4201,
      "problems": 4202,
      "Ġheard": 4203,
      "Ġchallenge": 4204,
      "Ġroad": 4205,
      "Ġroles": 4206,
      "Ġpoetry": 4207,
      "Ġvariations": 4208,
      "ĠBayesian": 4209,
      "ĠYour": 4210,
      "Ġauthent": 4211,
      "Ġdistractions": 4212,
      "Ġnetworking": 4213,
      "Ġoutstand": 4214,
      "Ġconsum": 4215,
      "Ġ['": 4216,
      "Ġgratitude": 4217,
      "Ġhighly": 4218,
      "Ġtracking": 4219,
      "Ġcomplexity": 4220,
      "Ġeduc": 4221,
      "Ġamaz": 4222,
      "capture": 4223,
      "ĠAnother": 4224,
      "Ġattributes": 4225,
      "Ġassistant": 4226,
      "Ġconversational": 4227,
      "Ġpedest": 4228,
      "Ġpersonalized": 4229,
      "Ġagain": 4230,
      "Ġprofessionals": 4231,
      "Ġsafely": 4232,
      "ĠDet": 4233,
      "Ġservers": 4234,
      "ĠAdobe": 4235,
      "Ġparticipant": 4236,
      "being": 4237,
      "Ġrecommendations": 4238,
      "udgment": 4239,
      "rays": 4240,
      "Ġorganizing": 4241,
      "Ġclasses": 4242,
      "Ġcorrespon": 4243,
      "ĠNetwor": 4244,
      "Ġspark": 4245,
      "Ġrandomly": 4246,
      "rectangle": 4247,
      "Ġcouldn": 4248,
      "Ġopening": 4249,
      "Ġrequires": 4250,
      "Ġsubproblems": 4251,
      "Ġsociety": 4252,
      "Ġsocket": 4253,
      "ĠVideo": 4254,
      "ĠVinci": 4255,
      "Ġlocally": 4256,
      "Ġconcaten": 4257,
      "Ġsucceed": 4258,
      "Ġmindset": 4259,
      "Ġmotivation": 4260,
      "Implement": 4261,
      "Ġsensor": 4262,
      "Ġdatasets": 4263,
      "Ġtalking": 4264,
      "Ġmoder": 4265,
      "Ġinteresting": 4266,
      "Ġargue": 4267,
      "Ġprioritizing": 4268,
      "Ġmentors": 4269,
      "Ġmentoring": 4270,
      "Ġbranch": 4271,
      "Ġkeeps": 4272,
      "Ġexpressions": 4273,
      "Ġreaching": 4274,
      "Ġgrav": 4275,
      "Ġdelivered": 4276,
      "ĠCanberra": 4277,
      "Ġfamil": 4278,
      "Ġreducing": 4279,
      "Ġsurpass": 4280,
      "Ġentity": 4281,
      "Ġentire": 4282,
      "Ġvictor": 4283,
      "Ġclarify": 4284,
      "Ġupdates": 4285,
      "Ġstruggle": 4286,
      "Ġcustomers": 4287,
      "hern": 4288,
      "Ġbusinesses": 4289,
      "Ġanswer": 4290,
      "Ġstatement": 4291,
      "ĠImage": 4292,
      "Ġversions": 4293,
      "Ġrecently": 4294,
      "Ġprogressions": 4295,
      "Ġenhances": 4296,
      "Ġformats": 4297,
      "Ġprompts": 4298,
      "Ġinspiration": 4299,
      "Ġassertive": 4300,
      "party": 4301,
      "Ġtreat": 4302,
      "Ġtrees": 4303,
      "Ġmetrics": 4304,
      "Ġdidn": 4305,
      "Ġdecline": 4306,
      "Ġcompliment": 4307,
      "Ġtemplate": 4308,
      "Ġcaptures": 4309,
      "Ġcolleague": 4310,
      "Ġnerves": 4311,
      "Ġunderlying": 4312,
      "Ġkind": 4313,
      "Ġmarketing": 4314,
      "Ġpredicted": 4315,
      "Ġcurrently": 4316,
      "writing": 4317,
      "ĠPyAudio": 4318,
      "ĠPyTorch": 4319,
      "ĠReact": 4320,
      "Ġpronoun": 4321,
      ".\\\",}\\": 4322,
      "Ġlittle": 4323,
      "Ġseconds": 4324,
      "Ġquantum": 4325,
      "Ġalternative": 4326,
      "Ġembed": 4327,
      "Ġdisagreements": 4328,
      "Ġcompany": 4329,
      "ĠWeb": 4330,
      "Ġconcentration": 4331,
      "Ġradio": 4332,
      "Ġpsych": 4333,
      "ropout": 4334,
      "Ġcondens": 4335,
      "ĠAlso": 4336,
      "Ġsafety": 4337,
      "Ġsustainability": 4338,
      "sender": 4339,
      "Ġafter": 4340,
      "Ġstyle": 4341,
      "Ġreliability": 4342,
      "Ġcaptivating": 4343,
      "work": 4344,
      "Ġtherapy": 4345,
      "Ġlooks": 4346,
      "Ġimmersive": 4347,
      "Ġexpectations": 4348,
      "Ġteaching": 4349,
      "Ġassigning": 4350,
      "Ġfacilitate": 4351,
      "ĠNeural": 4352,
      "Ġmisunderstandings": 4353,
      "oosing": 4354,
      "Ġutilizing": 4355,
      "Ġsemantic": 4356,
      "Ġhistory": 4357,
      "Ġconferencing": 4358,
      "Ġarchitect": 4359,
      "Ġpretty": 4360,
      "alyzer": 4361,
      "Ġadventure": 4362,
      "Ġdiagn": 4363,
      "Ġdirectly": 4364,
      "Ġobstacles": 4365,
      "ĠLeonardo": 4366,
      "Ġaccomplishments": 4367,
      "Subject": 4368,
      "freq": 4369,
      "nmsg": 4370,
      "nwhile": 4371,
      "population": 4372,
      "scores": 4373,
      "Ġtutor": 4374,
      "Ġcelebr": 4375,
      "Ġpandas": 4376,
      "Ġfidgeting": 4377,
      "Ġmelody": 4378,
      "Ġbacteria": 4379,
      "Ġhurt": 4380,
      "Ġinconsist": 4381,
      "ĠFlask": 4382,
      "Ġauthentication": 4383,
      "Ġoutstanding": 4384,
      "Ġpedestri": 4385,
      "Ġconcatenate": 4386,
      "!')\\": 4387,
      "!')\"}": 4388,
      "']\\": 4389,
      ")),\\": 4390,
      "45": 4391,
      ">,": 4392,
      "?',": 4393,
      "?'\"}": 4394,
      "AR": 4395,
      "AY": 4396,
      "BGR": 4397,
      "CB": 4398,
      "Cal": 4399,
      "Com": 4400,
      "Cognitive": 4401,
      "Create": 4402,
      "COLO": 4403,
      "Cascade": 4404,
      "ES": 4405,
      "Enc": 4406,
      "Evolution": 4407,
      "IM": 4408,
      "Int": 4409,
      "Lit": 4410,
      "Natural": 4411,
      "PU": 4412,
      "Ph": 4413,
      "Py": 4414,
      "Ro": 4415,
      "ST": 4416,
      "SV": 4417,
      "Sh": 4418,
      "Sentiment": 4419,
      "Scale": 4420,
      "Tu": 4421,
      "Visual": 4422,
      "]:\\": 4423,
      "__": 4424,
      "``": 4425,
      "af": 4426,
      "akn": 4427,
      "bre": 4428,
      "bar": 4429,
      "big": 4430,
      "bpm": 4431,
      "bird": 4432,
      "dn": 4433,
      "ev": 4434,
      "eeting": 4435,
      "free": 4436,
      "fron": 4437,
      "frequency": 4438,
      "faces": 4439,
      "frame": 4440,
      "ges": 4441,
      "gray": 4442,
      "hi": 4443,
      "ht": 4444,
      "hol": 4445,
      "hand": 4446,
      "hip": 4447,
      "iar": 4448,
      "iate": 4449,
      "iScale": 4450,
      "ky": 4451,
      "kes": 4452,
      "ls": 4453,
      "lit": 4454,
      "log": 4455,
      "length": 4456,
      "mat": 4457,
      "man": 4458,
      "nch": 4459,
      "nds": 4460,
      "oes": 4461,
      "optim": 4462,
      "pis": 4463,
      "part": 4464,
      "rt": 4465,
      "rate": 4466,
      "rial": 4467,
      "rong": 4468,
      "space": 4469,
      "ton": 4470,
      "ties": 4471,
      "title": 4472,
      "topic": 4473,
      "tColor": 4474,
      "uch": 4475,
      "uine": 4476,
      "uish": 4477,
      "we": 4478,
      "ww": 4479,
      "well": 4480,
      "write": 4481,
      "wav": 4482,
      "xml": 4483,
      "za": 4484,
      "à¤": 4485,
      "Ġ&": 4486,
      "Ġing": 4487,
      "Ġput": 4488,
      "Ġur": 4489,
      "Ġknowledge": 4490,
      "ink": 4491,
      "indi": 4492,
      "Ġair": 4493,
      "Ġtail": 4494,
      "uts": 4495,
      "utious": 4496,
      "ery": 4497,
      "erely": 4498,
      "error": 4499,
      "att": 4500,
      "Ġcy": 4501,
      "red": 4502,
      "reed": 4503,
      "reet": 4504,
      "ream": 4505,
      "redi": 4506,
      "rench": 4507,
      "Ġsquare": 4508,
      "Ġthing": 4509,
      "anish": 4510,
      "iss": 4511,
      "ised": 4512,
      "Ġpage": 4513,
      "Ġpaired": 4514,
      "Ġfin": 4515,
      "Ġfan": 4516,
      "Ġfas": 4517,
      "Ġfine": 4518,
      "Ġfall": 4519,
      "Ġfinal": 4520,
      "Ġfaster": 4521,
      "Ġfault": 4522,
      "Ġforeshadowing": 4523,
      "Ġfright": 4524,
      "Ġfreed": 4525,
      "itor": 4526,
      "itable": 4527,
      "itations": 4528,
      "Ġinference": 4529,
      "Ġinitial": 4530,
      "ouse": 4531,
      "Ġthems": 4532,
      "Ġtoken": 4533,
      "Ġmyth": 4534,
      "Ġmatter": 4535,
      "Ġmuch": 4536,
      "cting": 4537,
      "Ġwait": 4538,
      "Ġwidth": 4539,
      "Ġwrong": 4540,
      "rosa": 4541,
      "Ġblu": 4542,
      "Ġbmi": 4543,
      "Ġbpm": 4544,
      "Ġbicy": 4545,
      "Ġbroadcast": 4546,
      "Ġrely": 4547,
      "Ġrepl": 4548,
      "Ġrevolution": 4549,
      "ims": 4550,
      "imply": 4551,
      "icious": 4552,
      "omfort": 4553,
      "elves": 4554,
      "user": 4555,
      "Ġdog": 4556,
      "Ġdue": 4557,
      "Ġduration": 4558,
      "Ġdinner": 4559,
      "Ġelect": 4560,
      "Ġeco": 4561,
      "Ġepis": 4562,
      "Ġher": 4563,
      "Ġlon": 4564,
      "Ġloud": 4565,
      "Ġloss": 4566,
      "Ġlinks": 4567,
      "ching": 4568,
      "chant": 4569,
      "choice": 4570,
      "cement": 4571,
      "Ġnod": 4572,
      "Ġnail": 4573,
      "veill": 4574,
      "asp": 4575,
      "Ġusage": 4576,
      "Ġimmed": 4577,
      "ĠID": 4578,
      "unior": 4579,
      "Ġded": 4580,
      "Ġdeg": 4581,
      "Ġdeal": 4582,
      "Ġdeleg": 4583,
      "Ġdeaf": 4584,
      "url": 4585,
      "knowledging": 4586,
      "ategor": 4587,
      "Ġcondu": 4588,
      "ĠPM": 4589,
      "ĠPractice": 4590,
      "ilos": 4591,
      "Ġonce": 4592,
      "Ġstd": 4593,
      "step": 4594,
      "Ġexact": 4595,
      "istry": 4596,
      "ured": 4597,
      "Ġoriginal": 4598,
      "esses": 4599,
      "igg": 4600,
      "dictions": 4601,
      "dibility": 4602,
      "Ġintended": 4603,
      "Ġenchant": 4604,
      "abil": 4605,
      "ablish": 4606,
      "vern": 4607,
      "ries": 4608,
      "Ġwhether": 4609,
      "ĠAES": 4610,
      "Ġbear": 4611,
      "ogue": 4612,
      "izza": 4613,
      "Ġvast": 4614,
      "ests": 4615,
      "Ġsuper": 4616,
      "Ġsuitable": 4617,
      "ĠĠĠĠĠĠĠĠĠĠĠĠĠĠĠ": 4618,
      "Ġuncom": 4619,
      "actual": 4620,
      "Ġspeed": 4621,
      "place": 4622,
      "ĠItaly": 4623,
      "emble": 4624,
      "Ġchoosing": 4625,
      "rome": 4626,
      "Ġweakn": 4627,
      "Ġcautious": 4628,
      "Ġinterface": 4629,
      "Ġinterfaces": 4630,
      "Ġneut": 4631,
      "Ġincrease": 4632,
      "Ġcontain": 4633,
      "Ġsynd": 4634,
      "Ġcreation": 4635,
      "Ġcredibility": 4636,
      "default": 4637,
      "Ġtrigg": 4638,
      "endar": 4639,
      "illing": 4640,
      "Ġacknowledging": 4641,
      "ackers": 4642,
      "terance": 4643,
      "Ġgovern": 4644,
      "Ġmyst": 4645,
      "Ġmyself": 4646,
      "arewell": 4647,
      "Ġmodeling": 4648,
      "Ġshe": 4649,
      "ĠSentiment": 4650,
      "ĠSimply": 4651,
      "Ġrh": 4652,
      "Ġrun": 4653,
      "Ġrating": 4654,
      "culate": 4655,
      "epy": 4656,
      "ĠThank": 4657,
      "Ġadvert": 4658,
      "ĠFrench": 4659,
      "Ġ100": 4660,
      "Ġatom": 4661,
      "Ġoverview": 4662,
      "Ġinvolved": 4663,
      "Ġquiet": 4664,
      "Ġemp": 4665,
      "Ġdesired": 4666,
      "Ġdescending": 4667,
      "Ġperception": 4668,
      "Ġhumor": 4669,
      "ĠReg": 4670,
      "ĠRSS": 4671,
      "ĠRAM": 4672,
      "Ġsimul": 4673,
      "dub": 4674,
      "Ġaccording": 4675,
      "Ġdisson": 4676,
      "ĠCon": 4677,
      "ĠCapture": 4678,
      "ĠCSV": 4679,
      "ĠLib": 4680,
      "post": 4681,
      "ĠText": 4682,
      "ĠToday": 4683,
      "Ġspecial": 4684,
      "aker": 4685,
      "aken": 4686,
      "cision": 4687,
      "ryption": 4688,
      "ĠMocking": 4689,
      "Ġcolon": 4690,
      "Ġcapable": 4691,
      "Ġupcoming": 4692,
      "Ġassess": 4693,
      "Ġexperts": 4694,
      "Ġbuy": 4695,
      "predictions": 4696,
      "ervation": 4697,
      "Ġvariables": 4698,
      "ĠBut": 4699,
      "ĠBeng": 4700,
      "ĠYouTu": 4701,
      "Ġauthor": 4702,
      "Ġrefine": 4703,
      "apple": 4704,
      "sue": 4705,
      "Ġaddition": 4706,
      "Ġcoord": 4707,
      "Ġaccessed": 4708,
      "Ġready": 4709,
      "linear": 4710,
      "Ġvirus": 4711,
      "Ġconservation": 4712,
      "wareness": 4713,
      "Ġjudgment": 4714,
      "Ġjunior": 4715,
      "Ġcalling": 4716,
      "Ġdiscomfort": 4717,
      "phics": 4718,
      "Ġrelax": 4719,
      "Ġambig": 4720,
      "captions": 4721,
      "Ġphilos": 4722,
      "Ġattend": 4723,
      "Ġattitude": 4724,
      "Ġassistance": 4725,
      "ĠObjects": 4726,
      "Ġfacing": 4727,
      "Ġpersonalize": 4728,
      "Ġnois": 4729,
      "Ġshowing": 4730,
      "Ġlost": 4731,
      "Ġdebating": 4732,
      "Ġregularization": 4733,
      "ĠDraw": 4734,
      "ĠDeep": 4735,
      "ĠWith": 4736,
      "Ġactivity": 4737,
      "Ġoptimization": 4738,
      "comp": 4739,
      "compass": 4740,
      "talface": 4741,
      "Ġclassic": 4742,
      "Ġclassifier": 4743,
      "Ġeventually": 4744,
      "Ġreviews": 4745,
      "Ġspot": 4746,
      "Ġcontrolled": 4747,
      "Ġsummarize": 4748,
      "Ġsummarizing": 4749,
      "Ġdefinit": 4750,
      "Ġaddressing": 4751,
      "Ġmeditation": 4752,
      "Ġchecking": 4753,
      "Ġcountry": 4754,
      "Ġapproaches": 4755,
      "ĠUse": 4756,
      "Ġprovider": 4757,
      "Ġbeforehand": 4758,
      "Ġresponsible": 4759,
      "Ġinstances": 4760,
      "Ġlocating": 4761,
      "Ġempathetic": 4762,
      "erican": 4763,
      "Ġfolder": 4764,
      "Ġtopics": 4765,
      "Ġmaybe": 4766,
      "Ġmodules": 4767,
      "Ġoperate": 4768,
      "Ġemails": 4769,
      "Ġconsidered": 4770,
      "Ġconsiderations": 4771,
      "Ġstructured": 4772,
      "([[": 4773,
      "Ġmental": 4774,
      "Ġbrings": 4775,
      "ĠAusten": 4776,
      "Ġstreaming": 4777,
      "Ġhealthy": 4778,
      "Ġnavigating": 4779,
      "Ġgraphics": 4780,
      "ĠAmerica": 4781,
      "Ġfamily": 4782,
      "Ġencourages": 4783,
      "Ġsurveill": 4784,
      "Ġvia": 4785,
      "Ġpanelists": 4786,
      "Ġcombines": 4787,
      "Ġcombined": 4788,
      "Ġupdating": 4789,
      "Ġupdated": 4790,
      "Ġcoachee": 4791,
      "Ġactionable": 4792,
      "Ġfirm": 4793,
      "Ġcleaning": 4794,
      "MultiScale": 4795,
      "Ġappears": 4796,
      "Ġpossib": 4797,
      "cose": 4798,
      "Ġequal": 4799,
      "Ġequality": 4800,
      "Ġlyric": 4801,
      "Ġselecting": 4802,
      "Ġcontinu": 4803,
      "Ġcontinents": 4804,
      "Ġcontinue": 4805,
      "Ġarrays": 4806,
      "Ġevening": 4807,
      "Ġaccountability": 4808,
      "Analyzer": 4809,
      "forward": 4810,
      "Ġscenari": 4811,
      "Ġassertiveness": 4812,
      "Ġpotentially": 4813,
      "fortable": 4814,
      "paramet": 4815,
      "ĠKill": 4816,
      "Ġtrends": 4817,
      "arcascade": 4818,
      "Ġbooks": 4819,
      "Ġtemperature": 4820,
      "Ġmoviepy": 4821,
      "Ġachieved": 4822,
      "Ġsender": 4823,
      "Ġexercise": 4824,
      "Ġrecipients": 4825,
      "Ġprepared": 4826,
      "Ġdiverse": 4827,
      "Ġlatency": 4828,
      "Ġchemistry": 4829,
      "Ġtranslate": 4830,
      "Ġconfidently": 4831,
      "Ġtimely": 4832,
      "Ġclients": 4833,
      "arguments": 4834,
      "Ġincreased": 4835,
      "Ġparameter": 4836,
      "Ġopinion": 4837,
      "Translate": 4838,
      "equential": 4839,
      "traits": 4840,
      "Ġrule": 4841,
      "Ġlimited": 4842,
      "Ġnamed": 4843,
      "Ġproperly": 4844,
      "Ġdetermine": 4845,
      "Ġgenuine": 4846,
      "Ġstored": 4847,
      "Ġmagic": 4848,
      "Ġuniverse": 4849,
      "Ġuniverses": 4850,
      "Ġquantify": 4851,
      "Ġavailability": 4852,
      "Ġrequirements": 4853,
      "GRAY": 4854,
      "Ġdriving": 4855,
      "Ġharmony": 4856,
      "Ġhappens": 4857,
      "Ġcompanies": 4858,
      "Ġconcentrating": 4859,
      "Ġradius": 4860,
      "goodbye": 4861,
      "singular": 4862,
      "Ġestablish": 4863,
      "Ġtries": 4864,
      "Ġpsutil": 4865,
      "Ġfootage": 4866,
      "Ġinferential": 4867,
      "Ġmutually": 4868,
      "Ġconditions": 4869,
      "Ġsustainable": 4870,
      "255": 4871,
      "Ġcatching": 4872,
      "Ġinstructions": 4873,
      "Ġbias": 4874,
      "Ġexisting": 4875,
      "Ġchannel": 4876,
      "Ġchannels": 4877,
      "Ġsecre": 4878,
      "Ġsatisfaction": 4879,
      "layers": 4880,
      "Ġzones": 4881,
      "ĠWhile": 4882,
      "device": 4883,
      "icipant": 4884,
      "Ġprotagon": 4885,
      "Ġbeauty": 4886,
      "Ġintervals": 4887,
      "Ġresonate": 4888,
      "ĠSouthern": 4889,
      "Ġ120": 4890,
      "Ġsimpler": 4891,
      "ĠConvert": 4892,
      "ensityAnalyzer": 4893,
      "cvtColor": 4894,
      "efficient": 4895,
      "Ġupload": 4896,
      "Ġmaterial": 4897,
      "Ġbullet": 4898,
      "Ġrewarding": 4899,
      "Ġearly": 4900,
      "Ġabsolutely": 4901,
      "ophy": 4902,
      "Ġemployee": 4903,
      "Ġperceive": 4904,
      "Ġcosts": 4905,
      "Ġcoherent": 4906,
      "Ġpromotes": 4907,
      "Ġdeclare": 4908,
      "Ġeconomic": 4909,
      "Ġbeliefs": 4910,
      "RNNs": 4911,
      "csv": 4912,
      "haarcascade": 4913,
      "Ġultimately": 4914,
      "Ġtags": 4915,
      "detectMultiScale": 4916,
      "Ġfuzzy": 4917,
      "Ġinnovation": 4918,
      "allel": 4919,
      "Ġbroken": 4920,
      "Ġbandwidth": 4921,
      "Ġboundaries": 4922,
      "Ġreinforcement": 4923,
      "Ġdialogue": 4924,
      "Ġhidden": 4925,
      "Ġglucose": 4926,
      "ĠSpanish": 4927,
      "Ġprimary": 4928,
      "Ġanalytics": 4929,
      "Ġconsumption": 4930,
      "Ġamazing": 4931,
      "ĠNetworks": 4932,
      "Ġfamiliar": 4933,
      "Ġvictories": 4934,
      "Ġtreatment": 4935,
      "Ġpedestrians": 4936,
      "Calculate": 4937,
      "COLOR": 4938,
      "CascadeClassifier": 4939,
      "IME": 4940,
      "IntensityAnalyzer": 4941,
      "Robot": 4942,
      "frontalface": 4943,
      "html": 4944,
      "participant": 4945,
      "Ġingredi": 4946,
      "Ġurg": 4947,
      "Ġfasc": 4948,
      "Ġfreedom": 4949,
      "Ġthemselves": 4950,
      "Ġtokenize": 4951,
      "Ġbicycle": 4952,
      "Ġelectr": 4953,
      "Ġepisodes": 4954,
      "Ġuncomfortable": 4955,
      "Ġweaknesses": 4956,
      "Ġsyndrome": 4957,
      "ĠSentimentIntensityAnalyzer": 4958,
      "Ġadvertising": 4959,
      "ĠRegular": 4960,
      "ĠMockingbird": 4961,
      "ĠYouTube": 4962,
      "compassion": 4963,
      "Ġdefinitely": 4964,
      "Ġsurveillance": 4965,
      "Ġprotagonist": 4966,
      "'}": 4967,
      "'.\",": 4968,
      "').": 4969,
      "((": 4970,
      ")**": 4971,
      "+'": 4972,
      ",)),\\": 4973,
      ".'": 4974,
      "12": 4975,
      "14": 4976,
      "22": 4977,
      "40": 4978,
      "4100": 4979,
      "84": 4980,
      ":</": 4981,
      "://": 4982,
      "=(": 4983,
      "?'.\"}": 4984,
      "AD": 4985,
      "AF": 4986,
      "Bot": 4987,
      "Ch": 4988,
      "Cloud": 4989,
      "DD": 4990,
      "DN": 4991,
      "EL": 4992,
      "Em": 4993,
      "Factor": 4994,
      "File": 4995,
      "Foreshadowing": 4996,
      "GG": 4997,
      "Hol": 4998,
      "HTML": 4999,
      "Jane": 5000,
      "Kn": 5001,
      "Ne": 5002,
      "Net": 5003,
      "Not": 5004,
      "PT": 5005,
      "Pe": 5006,
      "Pro": 5007,
      "Panel": 5008,
      "Plugin": 5009,
      "RAM": 5010,
      "SD": 5011,
      "Sort": 5012,
      "Turn": 5013,
      "Unc": 5014,
      "Vers": 5015,
      "VTT": 5016,
      "Would": 5017,
      "Wait": 5018,
      "[]": 5019,
      "])\"}": 5020,
      "ament": 5021,
      "ares": 5022,
      "actions": 5023,
      "bd": 5024,
      "bon": 5025,
      "bell": 5026,
      "bile": 5027,
      "bust": 5028,
      "blob": 5029,
      "cc": 5030,
      "cÃ": 5031,
      "call": 5032,
      "cos": 5033,
      "cient": 5034,
      "came": 5035,
      "cuse": 5036,
      "color": 5037,
      "dm": 5038,
      "dget": 5039,
      "dWait": 5040,
      "ean": 5041,
      "every": 5042,
      "fil": 5043,
      "fidence": 5044,
      "fric": 5045,
      "gc": 5046,
      "go": 5047,
      "gments": 5048,
      "htt": 5049,
      "house": 5050,
      "ike": 5051,
      "iver": 5052,
      "kit": 5053,
      "lt": 5054,
      "len": 5055,
      "lst": 5056,
      "love": 5057,
      "mo": 5058,
      "mit": 5059,
      "mith": 5060,
      "mod": 5061,
      "might": 5062,
      "nX": 5063,
      "num": 5064,
      "nmy": 5065,
      "nvtt": 5066,
      "npredictions": 5067,
      "oon": 5068,
      "oth": 5069,
      "ps": 5070,
      "python": 5071,
      "piece": 5072,
      "picious": 5073,
      "qdm": 5074,
      "sin": 5075,
      "ses": 5076,
      "say": 5077,
      "sem": 5078,
      "sample": 5079,
      "square": 5080,
      "sentence": 5081,
      "srt": 5082,
      "tun": 5083,
      "test": 5084,
      "tals": 5085,
      "ticip": 5086,
      "uro": 5087,
      "valid": 5088,
      "zure": 5089,
      "},": 5090,
      "¡s": 5091,
      "³mo": 5092,
      "Â¿": 5093,
      "Ã¡s": 5094,
      "Ġ7": 5095,
      "Ġut": 5096,
      "Ġes": 5097,
      "Ġkn": 5098,
      "Ġid": 5099,
      "Ġir": 5100,
      "ĠWhen": 5101,
      "Ġ}\"}": 5102,
      "ĠÂ¿": 5103,
      "inates": 5104,
      "inded": 5105,
      "Ġaims": 5106,
      "Ġton": 5107,
      "Ġtight": 5108,
      "Ġtense": 5109,
      "Ġtqdm": 5110,
      "onation": 5111,
      "erate": 5112,
      "erical": 5113,
      "erious": 5114,
      "atic": 5115,
      "atives": 5116,
      "Ġcat": 5117,
      "Ġcase": 5118,
      "Ġcategor": 5119,
      "rest": 5120,
      "relu": 5121,
      "renc": 5122,
      "inguish": 5123,
      "Ġsw": 5124,
      "Ġsch": 5125,
      "Ġsize": 5126,
      "Ġsav": 5127,
      "Ġsplit": 5128,
      "Ġsizes": 5129,
      "Ġserious": 5130,
      "enon": 5131,
      "ende": 5132,
      "enom": 5133,
      "ename": 5134,
      "Ġthrive": 5135,
      "Ġthird": 5136,
      "Ġthose": 5137,
      "aning": 5138,
      "anking": 5139,
      "anana": 5140,
      "left": 5141,
      "devel": 5142,
      "isk": 5143,
      "isper": 5144,
      "Ġpal": 5145,
      "Ġpun": 5146,
      "Ġpare": 5147,
      "Ġpair": 5148,
      "Ġpitch": 5149,
      "Ġpacing": 5150,
      "Ġpizza": 5151,
      "Ġfive": 5152,
      "Ġfake": 5153,
      "Ġfore": 5154,
      "Ġfire": 5155,
      "Ġflex": 5156,
      "Ġfarewell": 5157,
      "itance": 5158,
      "items": 5159,
      "Ġinit": 5160,
      "oust": 5161,
      "ali": 5162,
      "alog": 5163,
      "alax": 5164,
      "Ġanim": 5165,
      "Ġanch": 5166,
      "Ġancient": 5167,
      "Ġanticip": 5168,
      "Ġtheore": 5169,
      "Ġmit": 5170,
      "Ġmim": 5171,
      "Ġmig": 5172,
      "Ġmicro": 5173,
      "Ġmaster": 5174,
      "Ġmix": 5175,
      "Ġwon": 5176,
      "Ġwar": 5177,
      "Ġwel": 5178,
      "Ġwants": 5179,
      "Ġwider": 5180,
      "Ġox": 5181,
      "arily": 5182,
      "Ġbit": 5183,
      "Ġbra": 5184,
      "Ġblow": 5185,
      "Ġrev": 5186,
      "Ġrect": 5187,
      "Ġreuse": 5188,
      "Ġrevert": 5189,
      "iced": 5190,
      "icies": 5191,
      "Ġyoung": 5192,
      "ush": 5193,
      "usty": 5194,
      "users": 5195,
      "Ġdol": 5196,
      "Ġdru": 5197,
      "Ġdropout": 5198,
      "Ġelection": 5199,
      "Ġhit": 5200,
      "Ġhour": 5201,
      "Ġhref": 5202,
      "Ġhints": 5203,
      "Ġla": 5204,
      "Ġlower": 5205,
      "the": 5206,
      "cean": 5207,
      "Ġnu": 5208,
      "Ġnice": 5209,
      "Ġnlt": 5210,
      "Ġforms": 5211,
      "Ġusability": 5212,
      "viv": 5213,
      "Ġdeath": 5214,
      "Ġdepend": 5215,
      "Ġdealing": 5216,
      "Ġdeception": 5217,
      "rag": 5218,
      "rail": 5219,
      "raph": 5220,
      "Ġcoming": 5221,
      "Ġcomment": 5222,
      "ets": 5223,
      "eturn": 5224,
      "etings": 5225,
      "ull": 5226,
      "uly": 5227,
      "uling": 5228,
      "ulner": 5229,
      "olate": 5230,
      "Ġgc": 5231,
      "Ġglass": 5232,
      "ĠgTT": 5233,
      "Ġgrays": 5234,
      "Ġgalax": 5235,
      "iful": 5236,
      "iform": 5237,
      "Ġimpast": 5238,
      "Ġimposs": 5239,
      "Ġcondition": 5240,
      "ĠPi": 5241,
      "ĠPl": 5242,
      "aying": 5243,
      "Ġstri": 5244,
      "Ġstumb": 5245,
      "Ġstable": 5246,
      "istics": 5247,
      "Ġ'+'": 5248,
      "iguring": 5249,
      "amp": 5250,
      "amless": 5251,
      "ambd": 5252,
      "Ġleaning": 5253,
      "Ġintention": 5254,
      "Ġintensity": 5255,
      "Ġalone": 5256,
      "Ġalert": 5257,
      "Ġalph": 5258,
      "please": 5259,
      "abit": 5260,
      "abet": 5261,
      "Ġmaj": 5262,
      "Ġmakes": 5263,
      "veral": 5264,
      "rior": 5265,
      "Ġwhale": 5266,
      "Ġwhisper": 5267,
      "ĠAM": 5268,
      "ĠAs": 5269,
      "ĠAudio": 5270,
      "ĠAlex": 5271,
      "ĠAWS": 5272,
      "ĠAfric": 5273,
      "ĠAzure": 5274,
      "Ġbecoming": 5275,
      "Ġmeant": 5276,
      "odle": 5277,
      "Ġvol": 5278,
      "Ġvqa": 5279,
      "Ġvulner": 5280,
      "acies": 5281,
      "ĠĠĠĠĠĠĠĠĠĠ": 5282,
      "ader": 5283,
      "Ġuniform": 5284,
      "ellent": 5285,
      "resh": 5286,
      "Ġspect": 5287,
      "embers": 5288,
      "Ġchin": 5289,
      "Ġchoice": 5290,
      "Ġchances": 5291,
      "selection": 5292,
      "ipy": 5293,
      "ipal": 5294,
      "ipart": 5295,
      "ipient": 5296,
      "formula": 5297,
      "Ġsepar": 5298,
      "Ġseven": 5299,
      "Ġsegments": 5300,
      "Ġseamless": 5301,
      "Ġseveral": 5302,
      "iring": 5303,
      "Your": 5304,
      "Ġmobile": 5305,
      "Ġimprovements": 5306,
      "rupt": 5307,
      "Ġnear": 5308,
      "Ġincom": 5309,
      "Ġcontribut": 5310,
      "occur": 5311,
      "ocols": 5312,
      "Ġcred": 5313,
      "Ġcreates": 5314,
      "Ġcreated": 5315,
      "lude": 5316,
      "Ġarc": 5317,
      "defined": 5318,
      "Ġtrick": 5319,
      "Ġtruly": 5320,
      "Ġacknowledge": 5321,
      "Ġaccept": 5322,
      "Ġappoint": 5323,
      "ops": 5324,
      "Ġresource": 5325,
      "Ġcalendar": 5326,
      "Ġshif": 5327,
      "Ġshap": 5328,
      "Ġshown": 5329,
      "ĠSci": 5330,
      "ĠSSD": 5331,
      "ĠSmith": 5332,
      "Ġranking": 5333,
      "Ġunderg": 5334,
      "ĠThat": 5335,
      "Ġprecision": 5336,
      "Ġpredefined": 5337,
      "raining": 5338,
      "rained": 5339,
      "Ġcalculations": 5340,
      "osis": 5341,
      "osition": 5342,
      "ĠFalse": 5343,
      "ĠFrost": 5344,
      "Ġprogression": 5345,
      "Ġprocessed": 5346,
      "iles": 5347,
      "orders": 5348,
      "thering": 5349,
      "Ġdifferences": 5350,
      "Ġquite": 5351,
      "orytelling": 5352,
      "Ġemph": 5353,
      "Ġclips": 5354,
      "Ġclick": 5355,
      "Ġclicking": 5356,
      "ightly": 5357,
      "ological": 5358,
      "ologizing": 5359,
      "ĠRoad": 5360,
      "ĠRob": 5361,
      "ĠRasp": 5362,
      "ĠReturn": 5363,
      "Ġtransfer": 5364,
      "Ġtransitions": 5365,
      "nschedule": 5366,
      "Ġscience": 5367,
      "Ġscipy": 5368,
      "Ġprone": 5369,
      "Ġdisk": 5370,
      "Ġdisaster": 5371,
      "Ġdisrupt": 5372,
      "ĠCh": 5373,
      "ĠCom": 5374,
      "ĠCNN": 5375,
      "Ġwhereas": 5376,
      "ensus": 5377,
      "ailable": 5378,
      "poem": 5379,
      "ĠTV": 5380,
      "ĠTe": 5381,
      "ĠTitle": 5382,
      "ĠTaken": 5383,
      "ĠTrail": 5384,
      "Ġspecies": 5385,
      "Ġperforming": 5386,
      "Ġperformed": 5387,
      "visions": 5388,
      "Ġgenerations": 5389,
      "ĠMr": 5390,
      "ĠMIME": 5391,
      "ĠHar": 5392,
      "ĠHDD": 5393,
      "Ġcapacity": 5394,
      "())\"}": 5395,
      "ored": 5396,
      "Ġexploring": 5397,
      "ĠJust": 5398,
      "ĠJourney": 5399,
      "Ġremain": 5400,
      "Ġremains": 5401,
      "encies": 5402,
      "Ġdeveloped": 5403,
      "Ġregions": 5404,
      "Ġnotes": 5405,
      "ĠEuro": 5406,
      "proving": 5407,
      "production": 5408,
      "Ġbudget": 5409,
      "Ġroot": 5410,
      "Ġrobust": 5411,
      "Ġpoor": 5412,
      "pense": 5413,
      "erving": 5414,
      "Ġcompleted": 5415,
      "Ġvariance": 5416,
      "Ġsearching": 5417,
      "Ġauthorized": 5418,
      "ntheses": 5419,
      "Ġrefactor": 5420,
      "Ġdistin": 5421,
      "Ġdistinguish": 5422,
      "Ġensemble": 5423,
      "Ġexperienced": 5424,
      "aph": 5425,
      "api": 5426,
      "Ġfocusing": 5427,
      "Ġgreen": 5428,
      "ngray": 5429,
      "ngreet": 5430,
      "Ġcoex": 5431,
      "Ġcoffee": 5432,
      "Ġaccessing": 5433,
      "Ġreadable": 5434,
      "Ġconsensus": 5435,
      "Ġidentities": 5436,
      "Ġhigher": 5437,
      "berry": 5438,
      "Ġtrail": 5439,
      "Ġpresented": 5440,
      "Ġformal": 5441,
      "Ġdiscount": 5442,
      "Ġdiscourage": 5443,
      "Ġrelies": 5444,
      "Ġeditor": 5445,
      "Ġamends": 5446,
      "Ġcompat": 5447,
      "Ġcomparis": 5448,
      "Ġcomposition": 5449,
      "caption": 5450,
      "Ġphot": 5451,
      "Ġphenom": 5452,
      "ĠInst": 5453,
      "Ġattending": 5454,
      "Ġattackers": 5455,
      "Ġattende": 5456,
      "Ġposition": 5457,
      "thods": 5458,
      "Ġpeers": 5459,
      "Ġpolls": 5460,
      "Ġpolicies": 5461,
      "structure": 5462,
      "Ġnothing": 5463,
      "ertainty": 5464,
      "Ġprofessionalism": 5465,
      "Ġsales": 5466,
      "Ġloved": 5467,
      "Ġsupported": 5468,
      "ĠDN": 5469,
      "ĠDo": 5470,
      "Ġserves": 5471,
      "anger": 5472,
      "Ġarrange": 5473,
      "gging": 5474,
      "nface": 5475,
      "nfaces": 5476,
      "shoot": 5477,
      "Ġconverts": 5478,
      "Ġparallel": 5479,
      "Ġorganize": 5480,
      "ĠNot": 5481,
      "ĠName": 5482,
      "Ġreviewing": 5483,
      "Ġspending": 5484,
      "Ġcontrolling": 5485,
      "Ġideal": 5486,
      "pretrained": 5487,
      "Ġlabel": 5488,
      "Ġdefensive": 5489,
      "Ġaddresses": 5490,
      "Ġaddressed": 5491,
      "000": 5492,
      "Ġcounts": 5493,
      "Ġfiction": 5494,
      "Ġrequired": 5495,
      "Ġreverses": 5496,
      "Ġinterpretability": 5497,
      "const": 5498,
      "Ġinside": 5499,
      "Ġblaming": 5500,
      "Ġsubjects": 5501,
      "Ġpriorities": 5502,
      "ĠVQA": 5503,
      "ĠVGG": 5504,
      "Ġinstance": 5505,
      "Ġmusical": 5506,
      "Ġlocate": 5507,
      "Ġlocations": 5508,
      "Ġconclus": 5509,
      "Ġgreets": 5510,
      "Ġscheduling": 5511,
      "Ġchats": 5512,
      "ternoon": 5513,
      "playing": 5514,
      "playsound": 5515,
      "Ġcontextual": 5516,
      "'.\\\"}": 5517,
      "recording": 5518,
      "recipient": 5519,
      "Ġsensory": 5520,
      "Ġextracting": 5521,
      "Ġautomating": 5522,
      "Ġpodcasters": 5523,
      "Ġcourses": 5524,
      "Ġoperations": 5525,
      "Ġimpactful": 5526,
      "Ġinterested": 5527,
      "([\\": 5528,
      "Ġmentee": 5529,
      "Ġbothering": 5530,
      "Ġbrand": 5531,
      "Ġbrows": 5532,
      "Ġinterviewing": 5533,
      "Ġnegatively": 5534,
      "Ġexpressing": 5535,
      "Ġexpressed": 5536,
      "Ġverbs": 5537,
      "Ġverbal": 5538,
      "Ġlayer": 5539,
      "Ġstream": 5540,
      "Ġspeakers": 5541,
      "Ġcorrects": 5542,
      "Ġgrad": 5543,
      "Ġbusy": 5544,
      "Ġprotecting": 5545,
      "Ġrecurrent": 5546,
      "Ġsurviv": 5547,
      "Ġeveryday": 5548,
      "Ġpolitical": 5549,
      "Ġpolitics": 5550,
      "Ġchatbots": 5551,
      "Ġenter": 5552,
      "Ġdivide": 5553,
      "plaint": 5554,
      "Ġloops": 5555,
      "Ġtargeted": 5556,
      "Ġnumerical": 5557,
      "Ġguests": 5558,
      "Ġsuccessfully": 5559,
      "otherapy": 5560,
      "Ġviewpoint": 5561,
      "Ġmiss": 5562,
      "Ġmissing": 5563,
      "Ġcausation": 5564,
      "Ġincorrect": 5565,
      "incipal": 5566,
      "Ġindicating": 5567,
      "Ġexcellent": 5568,
      "Ġsuggestion": 5569,
      "Ġcontinues": 5570,
      "Ġtroubleshoot": 5571,
      "Ġaccounts": 5572,
      "Ġbreaths": 5573,
      "Ġdiscussed": 5574,
      "');\"}": 5575,
      "AndWait": 5576,
      "aze": 5577,
      "Ġpydub": 5578,
      "Ġdetai": 5579,
      "osystem": 5580,
      "Ġassertively": 5581,
      "Ġrespectfully": 5582,
      "Ġframework": 5583,
      "\\\\'": 5584,
      "sorted": 5585,
      "ĠKey": 5586,
      "ĠKeep": 5587,
      "ĠState": 5588,
      "processing": 5589,
      "Ġachieving": 5590,
      "Ġstudying": 5591,
      "Confidence": 5592,
      "Ġturns": 5593,
      "Ġsends": 5594,
      "ecurity": 5595,
      "Ġtransformation": 5596,
      "Ġphrase": 5597,
      "Ġkil": 5598,
      "Ġplugins": 5599,
      "Ġindex": 5600,
      "Ġmoments": 5601,
      "Ġconnected": 5602,
      "ĠPremi": 5603,
      "ĠToky": 5604,
      "Ġrequests": 5605,
      "'><": 5606,
      "meetings": 5607,
      "methods": 5608,
      "Ġactual": 5609,
      "Ġslightly": 5610,
      "Ġfull": 5611,
      "Ġconsisting": 5612,
      "Ġconsistency": 5613,
      "Ġdiscovery": 5614,
      "Ġautomatic": 5615,
      "Ġdifficulties": 5616,
      "Listening": 5617,
      "Transfer": 5618,
      "Translation": 5619,
      "Ġrepresentation": 5620,
      "Ġdirection": 5621,
      "Ġlimits": 5622,
      "Ġlimitations": 5623,
      "Ġproperties": 5624,
      "Ġdetermin": 5625,
      "Ġdetermining": 5626,
      "Ġgenres": 5627,
      "Ġcompared": 5628,
      "Ġminimizing": 5629,
      "Ġdemonstrate": 5630,
      "ĠJapanese": 5631,
      "Staying": 5632,
      "Storytelling": 5633,
      "Ġsuspicious": 5634,
      "Ġsuspense": 5635,
      "Ġwinner": 5636,
      "Ġecosystem": 5637,
      "Ġharmonic": 5638,
      "Ġlegends": 5639,
      "Ġapps": 5640,
      "Ġhappening": 5641,
      "Ġdisagreement": 5642,
      "Ġappearance": 5643,
      "Ġnormalization": 5644,
      "ĠestÃ¡s": 5645,
      "Ġtrip": 5646,
      "Ġcrossing": 5647,
      "Ġfootstep": 5648,
      "Ġinferences": 5649,
      "Ġdomain": 5650,
      "Ġdomains": 5651,
      "Ġdepending": 5652,
      "Ġaspects": 5653,
      "Ġsuppl": 5654,
      "Ġmanipulation": 5655,
      "Ġmanipulate": 5656,
      "Ġmanipulating": 5657,
      "ĠRecognize": 5658,
      "Ġposture": 5659,
      "ĠNLP": 5660,
      "Ġinterrupting": 5661,
      "Ġinterrupted": 5662,
      "Ġcharacterized": 5663,
      "Ġcharacteristics": 5664,
      "Ġopportunities": 5665,
      "augh": 5666,
      "Ġ\"'=='": 5667,
      "Ġafternoon": 5668,
      "Ġcells": 5669,
      "Ġsunny": 5670,
      "Ġreliable": 5671,
      "Ġvalidation": 5672,
      "response": 5673,
      "Ġsecure": 5674,
      "Ġcaptivate": 5675,
      "Ġdiscovered": 5676,
      "height": 5677,
      "runAndWait": 5678,
      "Ġtorchvision": 5679,
      "Ġrebuttal": 5680,
      "Ġprotocols": 5681,
      "Ġcomfortable": 5682,
      "Ġconstant": 5683,
      "Ġbeautiful": 5684,
      "Ġvarying": 5685,
      "Ġinterval": 5686,
      "ĠSouth": 5687,
      "ĠConvolutional": 5688,
      ".\\\"}\\": 5689,
      ".\\\"},\\": 5690,
      "Ġfiltering": 5691,
      "Alt": 5692,
      "Descript": 5693,
      "Description": 5694,
      "ades": 5695,
      "sounding": 5696,
      "reverse": 5697,
      "Ġpenalty": 5698,
      "Ġbalance": 5699,
      "Ġcompetitions": 5700,
      "Ġdatabase": 5701,
      "Ġdatabases": 5702,
      "Ġinclusive": 5703,
      "Ġinclusivity": 5704,
      "Ġdescribes": 5705,
      "Ġhighlights": 5706,
      "Ġdebug": 5707,
      "Ġdebugging": 5708,
      "Ġsurrounding": 5709,
      "Ġindustries": 5710,
      "Ġcentralized": 5711,
      "Ġliterary": 5712,
      "Ġliterature": 5713,
      "centage": 5714,
      "Ġthreat": 5715,
      "Ġinheritance": 5716,
      "Ġmargin": 5717,
      "ĠmergeSort": 5718,
      "Ġredundant": 5719,
      "Ġhyperparamet": 5720,
      "Ġspeculative": 5721,
      "Ġrichness": 5722,
      "Ġscalability": 5723,
      "ĠTranslate": 5724,
      "Ġeducational": 5725,
      "ĠDetection": 5726,
      "Ġgravitation": 5727,
      "Ġembedded": 5728,
      "Ġpsychological": 5729,
      "Ġcondensed": 5730,
      "Ġarchitecture": 5731,
      "Ġdiagnosis": 5732,
      "Ġtutorials": 5733,
      "Ġcelebrating": 5734,
      "Ġinconsistencies": 5735,
      "CBT": 5736,
      "Computer": 5737,
      "Encryption": 5738,
      "Photosynthesis": 5739,
      "Should": 5740,
      "barking": 5741,
      "attributes": 5742,
      "Ġfallacies": 5743,
      "Ġmyths": 5744,
      "Ġblue": 5745,
      "Ġrevolutionize": 5746,
      "Ġnodding": 5747,
      "Ġimmediate": 5748,
      "Ġdelegating": 5749,
      "Ġconducting": 5750,
      "Ġenchanted": 5751,
      "Ġgovernment": 5752,
      "Ġempty": 5753,
      "Ġdissonance": 5754,
      "ĠCont": 5755,
      "ĠLibrosa": 5756,
      "Ġspecialized": 5757,
      "ĠBengali": 5758,
      "Ġadditional": 5759,
      "Ġambiguous": 5760,
      "Ġphilosophy": 5761,
      "Ġattitudes": 5762,
      "Ġnoisy": 5763,
      "Ġpossibilities": 5764,
      "Ġscenarios": 5765,
      "Ġestablishing": 5766,
      "Ġsecrets": 5767,
      "Ġuploading": 5768,
      "Ġingredients": 5769,
      "Ġurgency": 5770,
      "Ġfascinating": 5771,
      "Hola": 5772,
      "Knock": 5773,
      "People": 5774,
      "Uncertainty": 5775,
      "Version": 5776,
      "cÃ³mo": 5777,
      "https": 5778,
      "validation": 5779,
      "Ġknock": 5780,
      "rences": 5781,
      "developed": 5782,
      "Ġparentheses": 5783,
      "Ġpairs": 5784,
      "Ġflexibility": 5785,
      "Ġanimals": 5786,
      "Ġanchoring": 5787,
      "Ġanticipation": 5788,
      "Ġmimic": 5789,
      "Ġdoll": 5790,
      "Ġdrug": 5791,
      "Ġhours": 5792,
      "Ġnltk": 5793,
      "Ġdepends": 5794,
      "ĠgTTS": 5795,
      "Ġgrayscale": 5796,
      "Ġgalaxies": 5797,
      "Ġimpasta": 5798,
      "Ġimpossible": 5799,
      "ambda": 5800,
      "Ġalphabet": 5801,
      "Ġwhispered": 5802,
      "ĠAlexa": 5803,
      "Ġvulnerabilities": 5804,
      "Ġuniforms": 5805,
      "Ġseparate": 5806,
      "Ġcontribute": 5807,
      "occurrences": 5808,
      "Ġappointment": 5809,
      "Ġemphas": 5810,
      "ĠRobert": 5811,
      "ĠRaspberry": 5812,
      "ĠEurope": 5813,
      "Ġcoexist": 5814,
      "Ġdiscouraged": 5815,
      "Ġcomparison": 5816,
      "Ġphenomenon": 5817,
      "Ġattendees": 5818,
      "structured": 5819,
      "Ġdetailed": 5820,
      "ĠPremiere": 5821,
      "ĠTokyo": 5822,
      "Ġfootsteps": 5823,
      "!\\\"}": 5824,
      "':\\": 5825,
      "'):\\": 5826,
      ")'": 5827,
      ")[": 5828,
      ")]": 5829,
      ")}\"}": 5830,
      "++": 5831,
      "/{": 5832,
      "03": 5833,
      "345": 5834,
      "44100": 5835,
      "784": 5836,
      ":\"}": 5837,
      ":',": 5838,
      ":')\\": 5839,
      "==": 5840,
      "=['": 5841,
      "?'\\": 5842,
      "AE": 5843,
      "As": 5844,
      "Ass": 5845,
      "AWS": 5846,
      "BM": 5847,
      "Be": 5848,
      "Bon": 5849,
      "Body": 5850,
      "BSL": 5851,
      "Boh": 5852,
      "Blob": 5853,
      "CA": 5854,
      "CK": 5855,
      "Ca": 5856,
      "Cl": 5857,
      "Co": 5858,
      "Cy": 5859,
      "Code": 5860,
      "Clic": 5861,
      "Compl": 5862,
      "CAP": 5863,
      "CDN": 5864,
      "DE": 5865,
      "DP": 5866,
      "Dist": 5867,
      "Dub": 5868,
      "Data": 5869,
      "Dropout": 5870,
      "Eng": 5871,
      "FF": 5872,
      "From": 5873,
      "Forest": 5874,
      "False": 5875,
      "Gre": 5876,
      "Giv": 5877,
      "Google": 5878,
      "He": 5879,
      "Hum": 5880,
      "Hot": 5881,
      "Here": 5882,
      "Hindi": 5883,
      "HEL": 5884,
      "ID": 5885,
      "IN": 5886,
      "Id": 5887,
      "Is": 5888,
      "Inc": 5889,
      "IOU": 5890,
      "Jup": 5891,
      "LV": 5892,
      "My": 5893,
      "Mod": 5894,
      "Model": 5895,
      "Math": 5896,
      "Message": 5897,
      "Meeting": 5898,
      "NT": 5899,
      "OT": 5900,
      "OOP": 5901,
      "OST": 5902,
      "PM": 5903,
      "PR": 5904,
      "Po": 5905,
      "Pr": 5906,
      "Pers": 5907,
      "Press": 5908,
      "Paris": 5909,
      "RE": 5910,
      "RO": 5911,
      "Res": 5912,
      "Range": 5913,
      "Room": 5914,
      "SM": 5915,
      "Sy": 5916,
      "Set": 5917,
      "Sil": 5918,
      "Sum": 5919,
      "Soc": 5920,
      "Send": 5921,
      "Seg": 5922,
      "Siri": 5923,
      "SEO": 5924,
      "Setting": 5925,
      "Sequential": 5926,
      "TP": 5927,
      "Taking": 5928,
      "Take": 5929,
      "True": 5930,
      "Topic": 5931,
      "TAR": 5932,
      "Using": 5933,
      "Vir": 5934,
      "Voice": 5935,
      "Writ": 5936,
      "WOT": 5937,
      "[-": 5938,
      "]'": 5939,
      "]',": 5940,
      "]]\\": 5941,
      "]])": 5942,
      "]])\\": 5943,
      "ah": 5944,
      "aign": 5945,
      "aded": 5946,
      "aiss": 5947,
      "awareness": 5948,
      "aCy": 5949,
      "bs": 5950,
      "bas": 5951,
      "bate": 5952,
      "bine": 5953,
      "bec": 5954,
      "bors": 5955,
      "boo": 5956,
      "bases": 5957,
      "bmi": 5958,
      "backs": 5959,
      "bae": 5960,
      "babil": 5961,
      "banana": 5962,
      "cout": 5963,
      "cra": 5964,
      "cure": 5965,
      "ccess": 5966,
      "cop": 5967,
      "cap": 5968,
      "cues": 5969,
      "cross": 5970,
      "cue": 5971,
      "common": 5972,
      "cuts": 5973,
      "dle": 5974,
      "ders": 5975,
      "dence": 5976,
      "doc": 5977,
      "dust": 5978,
      "eem": 5979,
      "even": 5980,
      "fers": 5981,
      "fact": 5982,
      "ffer": 5983,
      "fall": 5984,
      "found": 5985,
      "gen": 5986,
      "gle": 5987,
      "gar": 5988,
      "gram": 5989,
      "gress": 5990,
      "gener": 5991,
      "geries": 5992,
      "genda": 5993,
      "gae": 5994,
      "hit": 5995,
      "how": 5996,
      "hips": 5997,
      "hood": 5998,
      "host": 5999,
      "hook": 6000,
      "haps": 6001,
      "hift": 6002,
      "habil": 6003,
      "hops": 6004,
      "iou": 6005,
      "ipe": 6006,
      "ius": 6007,
      "iod": 6008,
      "iative": 6009,
      "js": 6010,
      "jab": 6011,
      "jour": 6012,
      "join": 6013,
      "json": 6014,
      "kely": 6015,
      "lf": 6016,
      "lers": 6017,
      "lack": 6018,
      "light": 6019,
      "loo": 6020,
      "life": 6021,
      "lock": 6022,
      "laps": 6023,
      "links": 6024,
      "link": 6025,
      "laugh": 6026,
      "mb": 6027,
      "mis": 6028,
      "mes": 6029,
      "mime": 6030,
      "mind": 6031,
      "mail": 6032,
      "macy": 6033,
      "molar": 6034,
      "move": 6035,
      "minded": 6036,
      "members": 6037,
      "na": 6038,
      "noutput": 6039,
      "nav": 6040,
      "nown": 6041,
      "ntext": 6042,
      "nnet": 6043,
      "national": 6044,
      "nimg": 6045,
      "naling": 6046,
      "nresult": 6047,
      "nTime": 6048,
      "null": 6049,
      "nresponse": 6050,
      "ox": 6051,
      "och": 6052,
      "oization": 6053,
      "oining": 6054,
      "ools": 6055,
      "oHot": 6056,
      "pu": 6057,
      "pur": 6058,
      "page": 6059,
      "pid": 6060,
      "prom": 6061,
      "pag": 6062,
      "pending": 6063,
      "polar": 6064,
      "piration": 6065,
      "paign": 6066,
      "rat": 6067,
      "rand": 6068,
      "rase": 6069,
      "range": 6070,
      "rality": 6071,
      "rco": 6072,
      "router": 6073,
      "sm": 6074,
      "sy": 6075,
      "side": 6076,
      "sens": 6077,
      "serv": 6078,
      "sph": 6079,
      "sci": 6080,
      "sian": 6081,
      "sarcasm": 6082,
      "tar": 6083,
      "ters": 6084,
      "tot": 6085,
      "tpl": 6086,
      "tain": 6087,
      "tely": 6088,
      "trans": 6089,
      "taker": 6090,
      "ug": 6091,
      "uled": 6092,
      "uil": 6093,
      "uitive": 6094,
      "udition": 6095,
      "uck": 6096,
      "uels": 6097,
      "ugment": 6098,
      "ufact": 6099,
      "vate": 6100,
      "vowels": 6101,
      "vqa": 6102,
      "vader": 6103,
      "wa": 6104,
      "wers": 6105,
      "wall": 6106,
      "wable": 6107,
      "wide": 6108,
      "wise": 6109,
      "xample": 6110,
      "xFF": 6111,
      "ying": 6112,
      "yal": 6113,
      "yol": 6114,
      "your": 6115,
      "yOf": 6116,
      "ygen": 6117,
      "zy": 6118,
      "zing": 6119,
      "}/": 6120,
      "ÏĢ": 6121,
      "à¥": 6122,
      "ëĭ": 6123,
      "ĠX": 6124,
      "Ġ}": 6125,
      "Ġic": 6126,
      "Ġge": 6127,
      "Ġver": 6128,
      "Ġri": 6129,
      "Ġ}\\": 6130,
      "ĠÏĢ": 6131,
      "inx": 6132,
      "inent": 6133,
      "inate": 6134,
      "inist": 6135,
      "inant": 6136,
      "inition": 6137,
      "inated": 6138,
      "inning": 6139,
      "initial": 6140,
      "Ġ\"//": 6141,
      "Ġ\"==": 6142,
      "Ġaes": 6143,
      "Ġage": 6144,
      "Ġastr": 6145,
      "Ġahead": 6146,
      "Ġawareness": 6147,
      "Ġaugment": 6148,
      "Ġtis": 6149,
      "Ġtou": 6150,
      "Ġtel": 6151,
      "Ġtun": 6152,
      "Ġtable": 6153,
      "Ġtack": 6154,
      "Ġtough": 6155,
      "Ġtired": 6156,
      "Ġtones": 6157,
      "onn": 6158,
      "onnet": 6159,
      "ondri": 6160,
      "utive": 6161,
      "utoHot": 6162,
      "erve": 6163,
      "erry": 6164,
      "errors": 6165,
      "atable": 6166,
      "atory": 6167,
      "atched": 6168,
      "atically": 6169,
      "attle": 6170,
      "Ġcow": 6171,
      "Ġcip": 6172,
      "Ġclu": 6173,
      "Ġcars": 6174,
      "Ġcraw": 6175,
      "Ġcats": 6176,
      "Ġcascade": 6177,
      "Ġcourage": 6178,
      "Ġcounter": 6179,
      "Ġcuts": 6180,
      "rees": 6181,
      "react": 6182,
      "rete": 6183,
      "reak": 6184,
      "rebut": 6185,
      "rell": 6186,
      "reason": 6187,
      "replace": 6188,
      "readed": 6189,
      "remind": 6190,
      "inging": 6191,
      "ingModel": 6192,
      "Ġsd": 6193,
      "Ġsam": 6194,
      "Ġsite": 6195,
      "Ġslic": 6196,
      "Ġsonnet": 6197,
      "orn": 6198,
      "oration": 6199,
      "orth": 6200,
      "orate": 6201,
      "orage": 6202,
      "orse": 6203,
      "orns": 6204,
      "orker": 6205,
      "original": 6206,
      "orbell": 6207,
      "oratory": 6208,
      "env": 6209,
      "enaiss": 6210,
      "lec": 6211,
      "leas": 6212,
      "lely": 6213,
      "debate": 6214,
      "isks": 6215,
      "isdom": 6216,
      "Ġpit": 6217,
      "Ġpow": 6218,
      "Ġpure": 6219,
      "Ġpad": 6220,
      "Ġpres": 6221,
      "Ġpine": 6222,
      "Ġpans": 6223,
      "Ġpages": 6224,
      "Ġpap": 6225,
      "Ġpanc": 6226,
      "Ġpocket": 6227,
      "Ġpets": 6228,
      "Ġpleas": 6229,
      "Ġfit": 6230,
      "Ġfel": 6231,
      "Ġfif": 6232,
      "Ġfast": 6233,
      "Ġfair": 6234,
      "Ġfund": 6235,
      "Ġfoss": 6236,
      "Ġfuels": 6237,
      "iter": 6238,
      "itim": 6239,
      "itas": 6240,
      "itone": 6241,
      "Ġinh": 6242,
      "Ġinse": 6243,
      "Ġinability": 6244,
      "Ġinurl": 6245,
      "esitate": 6246,
      "Ġanalog": 6247,
      "Ġtheft": 6248,
      "oute": 6249,
      "outs": 6250,
      "Ġmen": 6251,
      "Ġmal": 6252,
      "Ġmur": 6253,
      "Ġmil": 6254,
      "Ġmiles": 6255,
      "ctic": 6256,
      "Ġwet": 6257,
      "Ġwav": 6258,
      "Ġwarm": 6259,
      "Ġwatched": 6260,
      "Ġwisdom": 6261,
      "Ġoption": 6262,
      "Ġopp": 6263,
      "Ġoven": 6264,
      "Ġocean": 6265,
      "\"}\"}": 6266,
      "owl": 6267,
      "aract": 6268,
      "arks": 6269,
      "arization": 6270,
      "arsh": 6271,
      "arlo": 6272,
      "Ġball": 6273,
      "Ġbake": 6274,
      "Ġboog": 6275,
      "Ġbritish": 6276,
      "Ġbilling": 6277,
      "Ġborders": 6278,
      "Ġbattle": 6279,
      "Ġbowl": 6280,
      "Ġreput": 6281,
      "Ġrech": 6282,
      "Ġrefer": 6283,
      "Ġreport": 6284,
      "Ġreds": 6285,
      "Ġrehabil": 6286,
      "Ġrenown": 6287,
      "imation": 6288,
      "imag": 6289,
      "imens": 6290,
      "ersine": 6291,
      "ersection": 6292,
      "entions": 6293,
      "entrop": 6294,
      "icient": 6295,
      "icated": 6296,
      "Ġyet": 6297,
      "Ġyog": 6298,
      "edies": 6299,
      "edsh": 6300,
      "Ġofficial": 6301,
      "eline": 6302,
      "eliness": 6303,
      "elength": 6304,
      "uses": 6305,
      "ussian": 6306,
      "Ġden": 6307,
      "Ġdance": 6308,
      "Ġdumb": 6309,
      "Ġdry": 6310,
      "Ġdouble": 6311,
      "Ġdash": 6312,
      "Ġdusty": 6313,
      "Ġdrag": 6314,
      "Ġdanger": 6315,
      "Ġdna": 6316,
      "Ġdimens": 6317,
      "Ġease": 6318,
      "Ġearth": 6319,
      "Ġeager": 6320,
      "Ġhy": 6321,
      "Ġhom": 6322,
      "Ġhello": 6323,
      "Ġhang": 6324,
      "Ġhabit": 6325,
      "Ġhesitate": 6326,
      "Ġharsh": 6327,
      "Ġlink": 6328,
      "Ġlambda": 6329,
      "chat": 6330,
      "chor": 6331,
      "chec": 6332,
      "cherry": 6333,
      "charact": 6334,
      "ths": 6335,
      "through": 6336,
      "threaded": 6337,
      "Ġnon": 6338,
      "Ġnet": 6339,
      "Ġnich": 6340,
      "Ġforget": 6341,
      "Ġforces": 6342,
      "asl": 6343,
      "asion": 6344,
      "Ġpros": 6345,
      "Ġproto": 6346,
      "Ġprobabil": 6347,
      "Ġimg": 6348,
      "Ġimag": 6349,
      "unch": 6350,
      "unting": 6351,
      "unte": 6352,
      "unication": 6353,
      "units": 6354,
      "unning": 6355,
      "unately": 6356,
      "unjab": 6357,
      "vil": 6358,
      "viation": 6359,
      "Ġdeck": 6360,
      "urance": 6361,
      "urable": 6362,
      "urons": 6363,
      "raight": 6364,
      "raints": 6365,
      "Ġcomments": 6366,
      "Ġcomedies": 6367,
      "etizing": 6368,
      "ulty": 6369,
      "oling": 6370,
      "olism": 6371,
      "olkit": 6372,
      "Ġgent": 6373,
      "Ġgir": 6374,
      "Ġgau": 6375,
      "Ġgaze": 6376,
      "Ġimpl": 6377,
      "Ġimpost": 6378,
      "Ġconcis": 6379,
      "ĠPot": 6380,
      "ĠPod": 6381,
      "ĠPower": 6382,
      "ĠPunjab": 6383,
      "Ġste": 6384,
      "Ġstar": 6385,
      "Ġstake": 6386,
      "Ġstoring": 6387,
      "Ġstores": 6388,
      "Ġstunning": 6389,
      "Ġstraight": 6390,
      "keeper": 6391,
      "pts": 6392,
      "stance": 6393,
      "stuck": 6394,
      "ythm": 6395,
      "Ġexport": 6396,
      "Ġexec": 6397,
      "Ġexists": 6398,
      "Ġexceed": 6399,
      "Ġexams": 6400,
      "ortana": 6401,
      "ortunately": 6402,
      "istant": 6403,
      "istential": 6404,
      "Ġ'='": 6405,
      "Ġord": 6406,
      "igate": 6407,
      "igator": 6408,
      "Ġleast": 6409,
      "Ġless": 6410,
      "umptions": 6411,
      "umPy": 6412,
      "Ġintitle": 6413,
      "Ġintonation": 6414,
      "Ġintuitive": 6415,
      "Ġalread": 6416,
      "Ġalgae": 6417,
      "Ġasl": 6418,
      "Ġascending": 6419,
      "plete": 6420,
      "Ġenvisions": 6421,
      "aby": 6422,
      "aborate": 6423,
      "quakes": 6424,
      "riev": 6425,
      "Ġwhene": 6426,
      "ĠAction": 6427,
      "ĠAud": 6428,
      "ĠAss": 6429,
      "ĠAccess": 6430,
      "ĠAgenda": 6431,
      "ĠAudition": 6432,
      "ĠAutoHot": 6433,
      "otation": 6434,
      "Ġbecomes": 6435,
      "ograph": 6436,
      "Ġitem": 6437,
      "Ġvan": 6438,
      "arning": 6439,
      "aced": 6440,
      "accur": 6441,
      "Ġlearners": 6442,
      "Ġlearned": 6443,
      "esting": 6444,
      "esteem": 6445,
      "Ġsupre": 6446,
      "Ġsuits": 6447,
      "Ġsugar": 6448,
      "Ġfear": 6449,
      "Ġfeet": 6450,
      "ado": 6451,
      "adam": 6452,
      "Ġuns": 6453,
      "Ġunit": 6454,
      "Ġunity": 6455,
      "Ġunable": 6456,
      "Ġunne": 6457,
      "Ġunstuck": 6458,
      "idation": 6459,
      "idering": 6460,
      "ivating": 6461,
      "ellow": 6462,
      "plot": 6463,
      "plural": 6464,
      "plerate": 6465,
      "inemat": 6466,
      "Ġretriev": 6467,
      "empt": 6468,
      "emory": 6469,
      "emian": 6470,
      "employe": 6471,
      "Ġchoc": 6472,
      "Ġchills": 6473,
      "That": 6474,
      "Ġfunctioning": 6475,
      "segment": 6476,
      "antum": 6477,
      "Ġrecall": 6478,
      "Ġrecipe": 6479,
      "percentage": 6480,
      "Ġdoorbell": 6481,
      "Ġsection": 6482,
      "Ġseems": 6483,
      "Ġweights": 6484,
      "irm": 6485,
      "iruses": 6486,
      "Ġcaching": 6487,
      "Ġmoved": 6488,
      "Ġmocking": 6489,
      "Ġmolec": 6490,
      "Ġinterpre": 6491,
      "Ġinternational": 6492,
      "inter": 6493,
      "interv": 6494,
      "Ġnever": 6495,
      "Ġneurons": 6496,
      "ansion": 6497,
      "Ġcontains": 6498,
      "Ġsynth": 6499,
      "Ġsymb": 6500,
      "oci": 6501,
      "ocal": 6502,
      "ocate": 6503,
      "Ġcreator": 6504,
      "Ġlists": 6505,
      "luding": 6506,
      "Ġarrive": 6507,
      "agers": 6508,
      "ighbors": 6509,
      "Ġacoust": 6510,
      "tered": 6511,
      "Ġhaven": 6512,
      "Ġaudioboo": 6513,
      "ĠmyList": 6514,
      "ĠmyPlugin": 6515,
      "Ġreset": 6516,
      "Ġresize": 6517,
      "Ġresized": 6518,
      "Ġrescue": 6519,
      "Ġrespiration": 6520,
      "Ġshar": 6521,
      "Ġshade": 6522,
      "Ġshifting": 6523,
      "ĠSelf": 6524,
      "ĠServ": 6525,
      "ĠSequential": 6526,
      "ĠSTAR": 6527,
      "ĠSWOT": 6528,
      "ĠSlack": 6529,
      "Ġringing": 6530,
      "Ġrisks": 6531,
      "Ġ(.": 6532,
      "aches": 6533,
      "erstanding": 6534,
      "ĠThai": 6535,
      "Ġplacing": 6536,
      "ptioningModel": 6537,
      "Ġprepar": 6538,
      "Ġprecise": 6539,
      "Ġpremi": 6540,
      "Ġadded": 6541,
      "Ġdiffers": 6542,
      "ressed": 6543,
      "lib": 6544,
      "lier": 6545,
      "lient": 6546,
      "osh": 6547,
      "osite": 6548,
      "ositive": 6549,
      "ĠFinal": 6550,
      "ĠFaster": 6551,
      "ĠFLV": 6552,
      "Ġ18": 6553,
      "ordPress": 6554,
      "Ġfeels": 6555,
      "ournaling": 6556,
      "Ġoverly": 6557,
      "Ġoverload": 6558,
      "Ġovercame": 6559,
      "Ġinvite": 6560,
      "Ġinviting": 6561,
      "Ġinvasion": 6562,
      "Ġquery": 6563,
      "Ġquotation": 6564,
      "Ġemploy": 6565,
      "Ġimplementation": 6566,
      "Ġtimekeeper": 6567,
      "Ġpractical": 6568,
      "Ġperiod": 6569,
      "assured": 6570,
      "gorithm": 6571,
      "Ġrecognized": 6572,
      "ecord": 6573,
      "Ġmanual": 6574,
      "Ġmanager": 6575,
      "Ġmanufact": 6576,
      "Ġmanagers": 6577,
      "ĠRes": 6578,
      "ĠRome": 6579,
      "ĠRock": 6580,
      "ĠRef": 6581,
      "ĠRecur": 6582,
      "ĠRecursion": 6583,
      "ĠRouter": 6584,
      "ĠRhaps": 6585,
      "ĠRenaiss": 6586,
      "ĠRecord": 6587,
      "Ġtranscript": 6588,
      "Ġtranspare": 6589,
      "Ġtransactions": 6590,
      "Ġtransmis": 6591,
      "nsentiment": 6592,
      "nsentence": 6593,
      "duce": 6594,
      "Ġscaling": 6595,
      "Ġwebpage": 6596,
      "Ġaccel": 6597,
      "Ġpricing": 6598,
      "Ġprincipal": 6599,
      "Ġdise": 6600,
      "Ġdisabilities": 6601,
      "Ġdisplace": 6602,
      "Ġdissem": 6603,
      "ĠCo": 6604,
      "ĠCut": 6605,
      "ĠCour": 6606,
      "ĠCels": 6607,
      "ĠCAP": 6608,
      "ĠCreate": 6609,
      "ĠCounter": 6610,
      "ĠCarlo": 6611,
      "ĠCortana": 6612,
      "Ġsets": 6613,
      "viding": 6614,
      "ĠList": 6615,
      "ĠLook": 6616,
      "ĠLike": 6617,
      "Ġbreed": 6618,
      "Ġbreaches": 6619,
      "Ġprogrammer": 6620,
      "ĠTw": 6621,
      "ĠTable": 6622,
      "ĠTrell": 6623,
      "Ġcommunities": 6624,
      "Ġcommunicating": 6625,
      "They": 6626,
      "Ġskill": 6627,
      "rypt": 6628,
      "ĠMP": 6629,
      "ĠMan": 6630,
      "ĠMark": 6631,
      "ĠMountain": 6632,
      "ĠMix": 6633,
      "ĠMeeting": 6634,
      "ĠMemory": 6635,
      "brb": 6636,
      "ĠHz": 6637,
      "ĠHav": 6638,
      "ĠHero": 6639,
      "ĠHTT": 6640,
      "ĠHyper": 6641,
      "ĠHindi": 6642,
      "Ġelaborate": 6643,
      "Ġcollaps": 6644,
      "(),": 6645,
      "orean": 6646,
      "Ġstoryline": 6647,
      "Ġexplo": 6648,
      "Ġexploration": 6649,
      "Ġremo": 6650,
      "Ġremorse": 6651,
      "Ġassumptions": 6652,
      "Ġassoci": 6653,
      "Ġsmtpl": 6654,
      "ished": 6655,
      "Ġregards": 6656,
      "Ġregulating": 6657,
      "Ġrealities": 6658,
      "Ġworkflow": 6659,
      "Ġpartition": 6660,
      "Ġsolely": 6661,
      "Ġbasis": 6662,
      "Ġnoticed": 6663,
      "Ġexpert": 6664,
      "Ġconfiguring": 6665,
      "fted": 6666,
      "ĠEnc": 6667,
      "ĠExample": 6668,
      "propag": 6669,
      "Ġotherwise": 6670,
      "Ġbuffer": 6671,
      "Ġpooling": 6672,
      "Ġ20": 6673,
      "Ġcomplement": 6674,
      "Ġcompletely": 6675,
      "Ġvariation": 6676,
      "ĠBroadcasting": 6677,
      "ĠBSL": 6678,
      "ĠBER": 6679,
      "ĠBoth": 6680,
      "ĠBreak": 6681,
      "Ġsearches": 6682,
      "fits": 6683,
      "nthesize": 6684,
      "Ġreflection": 6685,
      "Ġrefresh": 6686,
      "Ġdistant": 6687,
      "Ġensures": 6688,
      "aphor": 6689,
      "append": 6690,
      "Ġprivate": 6691,
      "Ġwaste": 6692,
      "Ġenhanced": 6693,
      "sub": 6694,
      "Ġoutfit": 6695,
      "Ġproduces": 6696,
      "Ġapplied": 6697,
      "Ġdeeply": 6698,
      "Ġcool": 6699,
      "Ġcoefficient": 6700,
      "Ġnewfound": 6701,
      "button": 6702,
      "botics": 6703,
      "Ġconsists": 6704,
      "Ġconsidering": 6705,
      "Ġ[[": 6706,
      "Ġjoining": 6707,
      "Ġjournaling": 6708,
      "Ġidentifi": 6709,
      "Ġmultitas": 6710,
      "ancy": 6711,
      "ancing": 6712,
      "Ġpresentations": 6713,
      "Ġwriters": 6714,
      "Ġformed": 6715,
      "phones": 6716,
      "Ġrelig": 6717,
      "Ġrelatable": 6718,
      "ommunication": 6719,
      "Ġthanking": 6720,
      "Ġmemoization": 6721,
      "Ġamerican": 6722,
      "Ġpattern": 6723,
      "Ġ</": 6724,
      "Ġcomparing": 6725,
      "Ġcompressed": 6726,
      "cape": 6727,
      "Ġphone": 6728,
      "Ġphotosy": 6729,
      "Ġmessaging": 6730,
      "ĠInt": 6731,
      "ĠInv": 6732,
      "ĠAnything": 6733,
      "ĠAntar": 6734,
      "ĠAnchor": 6735,
      "Ġparticle": 6736,
      "Ġattempt": 6737,
      "Ġmanaged": 6738,
      "ĠGPT": 6739,
      "Ġplayed": 6740,
      "Ġplayful": 6741,
      "ĠOn": 6742,
      "ĠOx": 6743,
      "Ġpeer": 6744,
      "Ġdetects": 6745,
      "Ġgives": 6746,
      "ributed": 6747,
      "ncap": 6748,
      "nclf": 6749,
      "Ġpurch": 6750,
      "Ġpursue": 6751,
      "Ġpolicy": 6752,
      "Ġpolarization": 6753,
      "Ġproficient": 6754,
      "Ġallocate": 6755,
      "ntrans": 6756,
      "Ġaggress": 6757,
      "Ġnoodle": 6758,
      "Ġemotion": 6759,
      "what": 6760,
      "Ġdebated": 6761,
      "Ġencoding": 6762,
      "Ġencaps": 6763,
      "ĠDon": 6764,
      "ĠDense": 6765,
      "ĠDef": 6766,
      "ĠDrive": 6767,
      "Ġservo": 6768,
      "anglement": 6769,
      "angles": 6770,
      "Ġextent": 6771,
      "Ġextended": 6772,
      "ĠWi": 6773,
      "ĠWordPress": 6774,
      "nfil": 6775,
      "nfunction": 6776,
      "nframe": 6777,
      "nfortunately": 6778,
      "pathy": 6779,
      "ship": 6780,
      "Ġtwists": 6781,
      "Ġsays": 6782,
      "computer": 6783,
      "complaint": 6784,
      "talk": 6785,
      "Ġparaph": 6786,
      "entials": 6787,
      "Ġcorn": 6788,
      "ĠNations": 6789,
      "ĠNatural": 6790,
      "ĠNorth": 6791,
      "ĠNumPy": 6792,
      "Ġexpand": 6793,
      "Ġexpensive": 6794,
      "Ġexpansion": 6795,
      "Ġrecords": 6796,
      "Ġspam": 6797,
      "ĠspaCy": 6798,
      "Ġspinning": 6799,
      "Ġspaced": 6800,
      "Ġcontrols": 6801,
      "Ġanalyzer": 6802,
      "Ġ30": 6803,
      "Ġcollaborative": 6804,
      "Ġfiletype": 6805,
      "Ġlaboratory": 6806,
      "Ġdefense": 6807,
      "Ġdeforest": 6808,
      "Ġdefault": 6809,
      "Ġdefined": 6810,
      "Ġdefinition": 6811,
      "Ġstarts": 6812,
      "Ġaccurately": 6813,
      "ĠEngine": 6814,
      "Ġtypical": 6815,
      "Ġmotors": 6816,
      "Ġoverwhelm": 6817,
      "Ġoverwhelming": 6818,
      "Indust": 6819,
      "Ġ{'": 6820,
      "Ġ{}\\": 6821,
      "Ġopenly": 6822,
      "Ġsubtra": 6823,
      "Ġsubtitle": 6824,
      "Ġsubstance": 6825,
      "config": 6826,
      "consci": 6827,
      "ĠUnfortunately": 6828,
      "arked": 6829,
      "Ġblame": 6830,
      "Ġblood": 6831,
      "Ġreasons": 6832,
      "Ġfavorites": 6833,
      "veling": 6834,
      "ĠVAD": 6835,
      "ĠViruses": 6836,
      "Ġinstant": 6837,
      "Ġbrainwriting": 6838,
      "Ġlocated": 6839,
      "Ġconcert": 6840,
      "Ġoutputs": 6841,
      "Ġschedules": 6842,
      "Ġscheduled": 6843,
      "ternatively": 6844,
      "Ġrights": 6845,
      "Ġbreakthrough": 6846,
      "Ġmotivate": 6847,
      "Ġbelong": 6848,
      "Ġbacklinks": 6849,
      "Ġbackpropag": 6850,
      "Ġneeding": 6851,
      "'.\\\",": 6852,
      "Images": 6853,
      "Impost": 6854,
      "Improving": 6855,
      "Ġsenses": 6856,
      "Ġextracts": 6857,
      "Ġ50": 6858,
      "Ġsongwriting": 6859,
      "Ġautomated": 6860,
      "Ġcourt": 6861,
      "Ġmodulation": 6862,
      "Ġoperation": 6863,
      "Ġdialectal": 6864,
      "Ġimpacts": 6865,
      "Ġrobotics": 6866,
      "(['": 6867,
      "Ġminifying": 6868,
      "ĠminNe": 6869,
      "Ġboard": 6870,
      "Ġframing": 6871,
      "Ġstanding": 6872,
      "Ġstandards": 6873,
      "Ġcorrectly": 6874,
      "bersecurity": 6875,
      "Ġreached": 6876,
      "Ġlights": 6877,
      "Ġstressed": 6878,
      "Ġgetting": 6879,
      "Ġfriendship": 6880,
      "Ġreceiver": 6881,
      "...\"}": 6882,
      "Ġsurgeries": 6883,
      "Ġdemean": 6884,
      "Ġinteracting": 6885,
      "Ġpoliteness": 6886,
      "Excuse": 6887,
      "Existential": 6888,
      "Ġentanglement": 6889,
      "Ġdiox": 6890,
      "Ġcombat": 6891,
      "Ġcombining": 6892,
      "Ġclarifying": 6893,
      "Ġreceives": 6894,
      "Ġcustomized": 6895,
      "Ġscripts": 6896,
      "Ġpasses": 6897,
      "Ġnumpy": 6898,
      "Ġguide": 6899,
      "Ġapologizing": 6900,
      "Ġremembering": 6901,
      "Ġgroups": 6902,
      "Multipart": 6903,
      "NLTK": 6904,
      "PII": 6905,
      "porarily": 6906,
      "Ġviewer": 6907,
      "Ġanswers": 6908,
      "Ġiterates": 6909,
      "Ġiterative": 6910,
      "Ġcausing": 6911,
      "Ġcauses": 6912,
      "Ġworkshops": 6913,
      "Ġappeal": 6914,
      "Ġpossibility": 6915,
      "Ġpossessions": 6916,
      "():\\\\": 6917,
      "VideoWrit": 6918,
      "coefficient": 6919,
      "incerely": 6920,
      "include": 6921,
      "Ġresearching": 6922,
      "ĠImport": 6923,
      "Ġselects": 6924,
      "Ġcontinuous": 6925,
      "ĠShe": 6926,
      "Ġcollections": 6927,
      "Ġinspire": 6928,
      "Ġinspiring": 6929,
      "Ġvehicle": 6930,
      "'))": 6931,
      "Ġrapid": 6932,
      "Ġpreferred": 6933,
      "Ġasserts": 6934,
      "posed": 6935,
      "ĠKorean": 6936,
      "erobotics": 6937,
      "Ġinflation": 6938,
      "Ġmeters": 6939,
      "Ġmetaphor": 6940,
      "Ġopponents": 6941,
      "Ġstatic": 6942,
      "Ġtempo": 6943,
      "Ġtemporarily": 6944,
      "Ġenjoyed": 6945,
      "Ġcarefully": 6946,
      "Ġcapturing": 6947,
      "ĠStart": 6948,
      "ĠStorage": 6949,
      "Ġreminds": 6950,
      "Ġsignificance": 6951,
      "Config": 6952,
      "myList": 6953,
      "speak": 6954,
      "speaker": 6955,
      "Ġtests": 6956,
      "Ġturning": 6957,
      "Ġfreezing": 6958,
      "Ġdifficulty": 6959,
      "Ġtransformer": 6960,
      "RecognitionConfig": 6961,
      "Ġ60": 6962,
      "Ġ90": 6963,
      "Ġmarkup": 6964,
      "Ġwanted": 6965,
      "ometers": 6966,
      "Ġlately": 6967,
      "Ġconnectivity": 6968,
      "Ġendpoint": 6969,
      "Ġplanning": 6970,
      "Ġplacement": 6971,
      "Ġtranslating": 6972,
      "ĠTogether": 6973,
      "ĠToolkit": 6974,
      "Ġconfidential": 6975,
      "ĠQueen": 6976,
      "meeting": 6977,
      "Ġacting": 6978,
      "Ġtimeline": 6979,
      "Ġcampaign": 6980,
      "Ġfilming": 6981,
      "Ġfilters": 6982,
      "ĠPyDub": 6983,
      "ĠProcess": 6984,
      "Ġmovement": 6985,
      "Ġcalmly": 6986,
      "ĠMonte": 6987,
      "Ġgroundbre": 6988,
      "Ġspacetime": 6989,
      "Ġpersuasion": 6990,
      "SOCK": 6991,
      "ndata": 6992,
      "nderstanding": 6993,
      "nrandom": 6994,
      "trait": 6995,
      "track": 6996,
      "Ġcenter": 6997,
      "Ġcenters": 6998,
      "Ġpainting": 6999,
      "Ġrepresented": 7000,
      "Ġrepresentative": 7001,
      "Ġgenre": 7002,
      "Ġgenetic": 7003,
      "Ġuniversal": 7004,
      "Ġsegmented": 7005,
      "Ġadaptation": 7006,
      "Ġquantity": 7007,
      "LOL": 7008,
      "Privacy": 7009,
      "value": 7010,
      "Ġcertainty": 7011,
      "Ġsuspect": 7012,
      "Ġsilent": 7013,
      "Ġmonetizing": 7014,
      "Ġburning": 7015,
      "Ġreusability": 7016,
      "Ġdrive": 7017,
      "Ġdriven": 7018,
      "thetics": 7019,
      "Ġlegal": 7020,
      "Ġlegitim": 7021,
      "Ġalternate": 7022,
      "Ġalternatives": 7023,
      "Ġembra": 7024,
      "Ġembarked": 7025,
      "Ġreflecting": 7026,
      "Ġcompromised": 7027,
      "Ġconcern": 7028,
      "Ġinfluencing": 7029,
      "Ġexercising": 7030,
      "Ġetiquettes": 7031,
      "Ġcomprehensive": 7032,
      "'])\"}": 7033,
      "factors": 7034,
      "headers": 7035,
      "umenting": 7036,
      "Ġestimation": 7037,
      "Ġaffecting": 7038,
      "Ġaffected": 7039,
      "Ġtried": 7040,
      "Ġflat": 7041,
      "Ġflash": 7042,
      "Ġfoster": 7043,
      "Ġinferring": 7044,
      "Ġmuting": 7045,
      "Ġrepetition": 7046,
      "Ġdominant": 7047,
      "ĠAlternatively": 7048,
      "cribed": 7049,
      "softmax": 7050,
      "Ġevaluation": 7051,
      "Ġscientists": 7052,
      "Ġheadphones": 7053,
      "Ġposts": 7054,
      "control": 7055,
      "Ġminute": 7056,
      "Ġplanets": 7057,
      "256": 7058,
      "Ġstyles": 7059,
      "Ġsunset": 7060,
      "Ġsincerely": 7061,
      "Ġpressing": 7062,
      "Ġpaths": 7063,
      "Ġfoundation": 7064,
      "Ġinstruct": 7065,
      "Ġmassive": 7066,
      "Ġwalks": 7067,
      "Ġobser": 7068,
      "Ġbiases": 7069,
      "Ġhardware": 7070,
      "Ġexistence": 7071,
      "Ġexistential": 7072,
      "Ġefforts": 7073,
      "Ġphysics": 7074,
      "Ġblindness": 7075,
      "Ġcameras": 7076,
      "Ġsatisfying": 7077,
      "!'\",": 7078,
      "Saying": 7079,
      "\\\"}\"}": 7080,
      "aeiou": 7081,
      "running": 7082,
      "works": 7083,
      "ĠYOLO": 7084,
      "ĠWhit": 7085,
      "atterBot": 7086,
      "Ġcarry": 7087,
      "Ġcarbon": 7088,
      "Ġbarking": 7089,
      "Ġbarbec": 7090,
      "Ġrestri": 7091,
      "Ġrebuttals": 7092,
      "Ġlooking": 7093,
      "Ġlaws": 7094,
      "Ġconstraints": 7095,
      "Ġoneself": 7096,
      "Ġcaptured": 7097,
      "Ġresonates": 7098,
      "Ġ12345": 7099,
      "ĠReading": 7100,
      "Ġassigned": 7101,
      "Ġfacilit": 7102,
      "ĠNew": 7103,
      "Ġprinciples": 7104,
      "Ġmisunderstanding": 7105,
      "Alice": 7106,
      "sales": 7107,
      "tempo": 7108,
      "temperature": 7109,
      "Ġuplifting": 7110,
      "reversed": 7111,
      "Ġpenalizing": 7112,
      "Ġfingerspelling": 7113,
      "Ġmaterials": 7114,
      "Ġwindow": 7115,
      "Ġbalanced": 7116,
      "Ġbulb": 7117,
      "Ġearlier": 7118,
      "Ġstops": 7119,
      "Ġintegers": 7120,
      "Ġintegrating": 7121,
      "Ġplots": 7122,
      "Ġinvesting": 7123,
      "Ġinvestment": 7124,
      "Ġemployees": 7125,
      "Ġdescribing": 7126,
      "Ġcollecting": 7127,
      "Ġcollected": 7128,
      "Ġcoherence": 7129,
      "Ġhighlight": 7130,
      "Ġparticularly": 7131,
      "Ġhashed": 7132,
      "Ġhashlib": 7133,
      "Ġmodularity": 7134,
      "Ġindustrial": 7135,
      "Ġencrypted": 7136,
      "Ġeconomics": 7137,
      "corrco": 7138,
      "center": 7139,
      "driving": 7140,
      "Ġsides": 7141,
      "Ġthreats": 7142,
      "Ġfailure": 7143,
      "Ġmarks": 7144,
      "Ġredundancy": 7145,
      "Ġdrawing": 7146,
      "Ġholding": 7147,
      "Ġhyperlink": 7148,
      "Ġintroduction": 7149,
      "Ġintroduce": 7150,
      "ĠApologizing": 7151,
      "ĠArrays": 7152,
      "Ġmeasure": 7153,
      "Ġspeculation": 7154,
      "Ġartic": 7155,
      "Ġshots": 7156,
      "Ġadminist": 7157,
      "ĠRandomForest": 7158,
      "Ġtransportation": 7159,
      "Ġscalable": 7160,
      "ĠscaleFactor": 7161,
      "Ġexperimenting": 7162,
      "Ġagainst": 7163,
      "ĠDetect": 7164,
      "Ġcorresponds": 7165,
      "Ġcorrespondence": 7166,
      "ĠVideoFile": 7167,
      "Ġmoderators": 7168,
      "Ġmentorship": 7169,
      "Ġgravity": 7170,
      "Ġentirely": 7171,
      "ĠImageCa": 7172,
      "Ġpronounced": 7173,
      "ĠWebVTT": 7174,
      "Ġarchitectures": 7175,
      "```": 7176,
      "dna": 7177,
      "dnn": 7178,
      "events": 7179,
      "many": 7180,
      "optimal": 7181,
      "optimizer": 7182,
      "weights": 7183,
      "www": 7184,
      "Ġtailor": 7185,
      "Ġtailored": 7186,
      "Ġcyber": 7187,
      "Ġcybersecurity": 7188,
      "Ġsquared": 7189,
      "issions": 7190,
      "Ġreplication": 7191,
      "userId": 7192,
      "Ġloneliness": 7193,
      "Ġdedication": 7194,
      "Ġdedicated": 7195,
      "Ġdegree": 7196,
      "Ġdegrees": 7197,
      "Ġbearings": 7198,
      "Ġsuperclass": 7199,
      "Ġneutral": 7200,
      "Ġneutrality": 7201,
      "Ġtrigger": 7202,
      "Ġmystery": 7203,
      "Ġrhythm": 7204,
      "Ġhumorous": 7205,
      "Ġsimulations": 7206,
      "Ġsimulates": 7207,
      "ĠTextBlob": 7208,
      "Ġcolonizing": 7209,
      "Ġcoordinate": 7210,
      "Ġrelaxation": 7211,
      "ĠDeepL": 7212,
      "compound": 7213,
      "compile": 7214,
      "Ġfirmly": 7215,
      "Ġfirmware": 7216,
      "Ġequalization": 7217,
      "Ġcontinuously": 7218,
      "Ġparameterized": 7219,
      "Ġfamiliarize": 7220,
      "Robots": 7221,
      "Ġelectrical": 7222,
      "Ġelectrons": 7223,
      "ĠRegularly": 7224,
      "ĠRegularization": 7225,
      "128": 7226,
      "224": 7227,
      "AFK": 7228,
      "Provide": 7229,
      "going": 7230,
      "modules": 7231,
      "squared": 7232,
      "tune": 7233,
      "Ġutterance": 7234,
      "Ġescape": 7235,
      "Ġirony": 7236,
      "Ġtonight": 7237,
      "Ġcategorical": 7238,
      "Ġpalm": 7239,
      "Ġpunct": 7240,
      "Ġfirewall": 7241,
      "Ġfarewells": 7242,
      "Ġinitiative": 7243,
      "Ġtheorem": 7244,
      "Ġmitigate": 7245,
      "Ġmicrocontrol": 7246,
      "Ġwarrior": 7247,
      "Ġwelcome": 7248,
      "Ġoxygen": 7249,
      "Ġbrave": 7250,
      "Ġrevolves": 7251,
      "Ġrectangles": 7252,
      "Ġlowercase": 7253,
      "Ġnuances": 7254,
      "ĠPlatform": 7255,
      "Ġstrict": 7256,
      "Ġstumbled": 7257,
      "Ġmajor": 7258,
      "ĠAsia": 7259,
      "ĠAudioSeg": 7260,
      "ĠAfrica": 7261,
      "Ġvolunte": 7262,
      "ĠĠĠĠĠĠĠĠĠĠĠĠĠ": 7263,
      "Ġspectral": 7264,
      "Ġincomplete": 7265,
      "Ġcredentials": 7266,
      "Ġtricky": 7267,
      "Ġshifted": 7268,
      "Ġshaping": 7269,
      "ĠSciPy": 7270,
      "Ġrankings": 7271,
      "Ġundergoes": 7272,
      "ĠChatterBot": 7273,
      "ĠCombine": 7274,
      "ĠMIMEMultipart": 7275,
      "ĠHarry": 7276,
      "Ġrefactoring": 7277,
      "Ġdistinctive": 7278,
      "Ġtrails": 7279,
      "Ġcompatibility": 7280,
      "Ġphotos": 7281,
      "ĠInstead": 7282,
      "ĠDNA": 7283,
      "Ġfictional": 7284,
      "Ġconclusions": 7285,
      "'.\\\"}\\": 7286,
      "Ġbrowsing": 7287,
      "Ġgradual": 7288,
      "Ġsurvivors": 7289,
      "Ġviewpoints": 7290,
      "Ġkilometers": 7291,
      "Ġdeterminism": 7292,
      "Ġtripod": 7293,
      "Ġsupplies": 7294,
      "Descriptive": 7295,
      "Ġhyperparameters": 7296,
      "Ġgravitational": 7297,
      "!\\\"},\\": 7298,
      "AEIOU": 7299,
      "BMI": 7300,
      "Bonjour": 7301,
      "Bohemian": 7302,
      "Clip": 7303,
      "Coffee": 7304,
      "Click": 7305,
      "Compliments": 7306,
      "Distributed": 7307,
      "Given": 7308,
      "Human": 7309,
      "HELLO": 7310,
      "INE": 7311,
      "Including": 7312,
      "Jupiter": 7313,
      "MeetingRoom": 7314,
      "PROP": 7315,
      "Point": 7316,
      "Person": 7317,
      "Synthesis": 7318,
      "Silence": 7319,
      "Social": 7320,
      "Virtual": 7321,
      "]]))": 7322,
      "based": 7323,
      "crafted": 7324,
      "copyOf": 7325,
      "crossentrop": 7326,
      "documenting": 7327,
      "falls": 7328,
      "generated": 7329,
      "looking": 7330,
      "ochondri": 7331,
      "purposed": 7332,
      "prompts": 7333,
      "polarity": 7334,
      "ratio": 7335,
      "randint": 7336,
      "syllables": 7337,
      "service": 7338,
      "sphinx": 7339,
      "total": 7340,
      "uilding": 7341,
      "yalty": 7342,
      "yolov": 7343,
      "Ġverify": 7344,
      "ĠÏĢr": 7345,
      "Ġaesthetics": 7346,
      "Ġastronomy": 7347,
      "Ġtissue": 7348,
      "Ġtelerobotics": 7349,
      "Ġtuning": 7350,
      "Ġtackle": 7351,
      "Ġcoworker": 7352,
      "Ġcipher": 7353,
      "Ġclues": 7354,
      "Ġcrawling": 7355,
      "Ġcounterarguments": 7356,
      "reasoning": 7357,
      "Ġsamplerate": 7358,
      "Ġslicing": 7359,
      "Ġpitfalls": 7360,
      "Ġpowder": 7361,
      "Ġpreserving": 7362,
      "Ġpineapple": 7363,
      "Ġpapers": 7364,
      "Ġpancreas": 7365,
      "Ġpocketsphinx": 7366,
      "Ġfelt": 7367,
      "Ġfifths": 7368,
      "Ġfundament": 7369,
      "Ġfossil": 7370,
      "Ġinsecure": 7371,
      "Ġmurder": 7372,
      "Ġmilk": 7373,
      "ctica": 7374,
      "Ġwavelength": 7375,
      "Ġopposite": 7376,
      "Ġboogie": 7377,
      "Ġrecharge": 7378,
      "Ġredshift": 7379,
      "Ġrehabilitation": 7380,
      "Ġrenowned": 7381,
      "Ġyoga": 7382,
      "edshift": 7383,
      "Ġdragon": 7384,
      "Ġdangerous": 7385,
      "Ġearthquakes": 7386,
      "check": 7387,
      "characters": 7388,
      "Ġprobabilistic": 7389,
      "Ġgirl": 7390,
      "Ġgauge": 7391,
      "Ġimposter": 7392,
      "Ġconcisely": 7393,
      "ĠPotter": 7394,
      "ĠPowerPoint": 7395,
      "ĠPunjabi": 7396,
      "Ġstakehol": 7397,
      "Ġexecutive": 7398,
      "Ġalready": 7399,
      "Ġwhenever": 7400,
      "ĠAudacity": 7401,
      "ĠAssistant": 7402,
      "ĠAutoHotkey": 7403,
      "accuracy": 7404,
      "Ġsupremacy": 7405,
      "Ġunnecessary": 7406,
      "inematics": 7407,
      "Ġretrieval": 7408,
      "employees": 7409,
      "Ġchocolate": 7410,
      "Ġinterpreting": 7411,
      "interval": 7412,
      "Ġaudiobooks": 7413,
      "ĠServices": 7414,
      "Ġpreparation": 7415,
      "Ġpremium": 7416,
      "Ġmanufacturing": 7417,
      "ĠRocky": 7418,
      "ĠReflect": 7419,
      "ĠRecurrent": 7420,
      "ĠRhapsody": 7421,
      "ĠRenaissance": 7422,
      "Ġtranscriptions": 7423,
      "Ġtransmission": 7424,
      "Ġdisplacement": 7425,
      "ĠCelsius": 7426,
      "ĠTrello": 7427,
      "ĠMarkup": 7428,
      "ĠMountains": 7429,
      "ĠHaversine": 7430,
      "ĠHTTP": 7431,
      "ĠHyperText": 7432,
      "Ġcollapses": 7433,
      "Ġsmtplib": 7434,
      "ĠBERT": 7435,
      "Ġidentifiable": 7436,
      "Ġmultitasking": 7437,
      "Ġphotosynthesize": 7438,
      "ĠAntarctica": 7439,
      "Ġaggressive": 7440,
      "Ġparaphrase": 7441,
      "Ġdeforestation": 7442,
      "Industrial": 7443,
      "Ġsubtraction": 7444,
      "ĠVADER": 7445,
      "Ġbreakthroughs": 7446,
      "Ġbackpropagation": 7447,
      "Imposter": 7448,
      "ĠminNeighbors": 7449,
      "Ġdemeanor": 7450,
      "Ġdioxide": 7451,
      "VideoWriter": 7452,
      "Ġrapidly": 7453,
      "Ġcampaigns": 7454,
      "Ġgroundbreaking": 7455,
      "Ġlegitimacy": 7456,
      "Ġobserve": 7457,
      "aeiouAEIOU": 7458,
      "Ġbarbecue": 7459,
      "corrcoef": 7460,
      "ĠRandomForestClassifier": 7461,
      "ĠVideoFileClip": 7462,
      "ĠImageCaptioningModel": 7463,
      "ĠAudioSegment": 7464,
      "Ġvolunteering": 7465,
      "copyOfRange": 7466,
      "crossentropy": 7467,
      "ochondria": 7468,
      "Ġwavelengths": 7469
    },
    "merges": [
      [
        "i",
        "n"
      ],
      [
        "Ġ",
        "\""
      ],
      [
        "Ġ",
        "a"
      ],
      [
        "Ġ",
        "t"
      ],
      [
        "o",
        "n"
      ],
      [
        "u",
        "t"
      ],
      [
        "\"",
        ":"
      ],
      [
        "e",
        "r"
      ],
      [
        "a",
        "t"
      ],
      [
        "Ġ",
        "c"
      ],
      [
        "r",
        "e"
      ],
      [
        "in",
        "g"
      ],
      [
        "Ġ",
        "s"
      ],
      [
        "p",
        "ut"
      ],
      [
        "o",
        "r"
      ],
      [
        "e",
        "n"
      ],
      [
        "\"",
        ","
      ],
      [
        "Ġt",
        "h"
      ],
      [
        "a",
        "n"
      ],
      [
        "i",
        "on"
      ],
      [
        "l",
        "e"
      ],
      [
        "d",
        "e"
      ],
      [
        "i",
        "s"
      ],
      [
        "Ġ",
        "p"
      ],
      [
        "Ġ",
        "f"
      ],
      [
        "i",
        "t"
      ],
      [
        "Ġ",
        "Ġ"
      ],
      [
        "Ġ",
        "in"
      ],
      [
        "o",
        "u"
      ],
      [
        "e",
        "s"
      ],
      [
        "a",
        "l"
      ],
      [
        "Ġa",
        "n"
      ],
      [
        "p",
        "e"
      ],
      [
        "Ġth",
        "e"
      ],
      [
        "Ġt",
        "o"
      ],
      [
        "o",
        "ut"
      ],
      [
        "Ġ",
        "m"
      ],
      [
        "c",
        "t"
      ],
      [
        "Ġan",
        "d"
      ],
      [
        "Ġ",
        "w"
      ],
      [
        "t",
        "y"
      ],
      [
        "Ġ",
        "o"
      ],
      [
        "out",
        "put"
      ],
      [
        "in",
        "put"
      ],
      [
        "ty",
        "pe"
      ],
      [
        "\"",
        "}"
      ],
      [
        "o",
        "w"
      ],
      [
        "{",
        "\""
      ],
      [
        "č",
        "Ċ"
      ],
      [
        "r",
        "o"
      ],
      [
        "a",
        "r"
      ],
      [
        "Ġ",
        "b"
      ],
      [
        "Ġ",
        "re"
      ],
      [
        "i",
        "m"
      ],
      [
        "er",
        "s"
      ],
      [
        "?",
        "\","
      ],
      [
        "at",
        "ion"
      ],
      [
        "en",
        "t"
      ],
      [
        "i",
        "c"
      ],
      [
        "o",
        "m"
      ],
      [
        "g",
        "e"
      ],
      [
        "Ġ",
        "y"
      ],
      [
        "Ġy",
        "ou"
      ],
      [
        "e",
        "d"
      ],
      [
        "Ġo",
        "f"
      ],
      [
        "e",
        "l"
      ],
      [
        ".",
        "\"}"
      ],
      [
        "u",
        "s"
      ],
      [
        "Ġ",
        "d"
      ],
      [
        "Ġ",
        "is"
      ],
      [
        "Ġ",
        "e"
      ],
      [
        "Ġ",
        "h"
      ],
      [
        "Ġ",
        "l"
      ],
      [
        "c",
        "h"
      ],
      [
        "o",
        "de"
      ],
      [
        "t",
        "h"
      ],
      [
        "c",
        "e"
      ],
      [
        "Ġ",
        "n"
      ],
      [
        "Ġc",
        "an"
      ],
      [
        "v",
        "e"
      ],
      [
        "Ġf",
        "or"
      ],
      [
        "a",
        "s"
      ],
      [
        "Ġp",
        "ro"
      ],
      [
        "Ġ",
        "us"
      ],
      [
        "Ġ",
        "im"
      ],
      [
        "Ġ",
        "I"
      ],
      [
        "on",
        "v"
      ],
      [
        "u",
        "n"
      ],
      [
        "v",
        "i"
      ],
      [
        "Ġ",
        "de"
      ],
      [
        "u",
        "r"
      ],
      [
        "W",
        "h"
      ],
      [
        "r",
        "a"
      ],
      [
        "ĠĠ",
        "Ġ"
      ],
      [
        "Ġc",
        "om"
      ],
      [
        "e",
        "t"
      ],
      [
        "u",
        "l"
      ],
      [
        "onv",
        "ers"
      ],
      [
        "onvers",
        "ation"
      ],
      [
        "k",
        "n"
      ],
      [
        "o",
        "l"
      ],
      [
        "le",
        "d"
      ],
      [
        "kn",
        "ow"
      ],
      [
        "Ġ",
        "g"
      ],
      [
        "i",
        "f"
      ],
      [
        "Ġim",
        "p"
      ],
      [
        "c",
        "onversation"
      ],
      [
        "Wh",
        "at"
      ],
      [
        "H",
        "ow"
      ],
      [
        "it",
        "h"
      ],
      [
        "know",
        "led"
      ],
      [
        "at",
        "e"
      ],
      [
        "knowled",
        "ge"
      ],
      [
        "Ġc",
        "on"
      ],
      [
        "ct",
        "ion"
      ],
      [
        "c",
        "ode"
      ],
      [
        "Ġ",
        "P"
      ],
      [
        "i",
        "l"
      ],
      [
        "Ġ",
        "on"
      ],
      [
        "a",
        "y"
      ],
      [
        "Ġs",
        "t"
      ],
      [
        "k",
        "e"
      ],
      [
        "a",
        "ge"
      ],
      [
        "m",
        "ent"
      ],
      [
        "p",
        "t"
      ],
      [
        "s",
        "t"
      ],
      [
        "y",
        "th"
      ],
      [
        "Ġe",
        "x"
      ],
      [
        "or",
        "t"
      ],
      [
        "is",
        "t"
      ],
      [
        "u",
        "re"
      ],
      [
        "yth",
        "on"
      ],
      [
        "ĠP",
        "ython"
      ],
      [
        "Ġw",
        "ith"
      ],
      [
        "Ġ",
        "'"
      ],
      [
        "l",
        "y"
      ],
      [
        "Ġ",
        "or"
      ],
      [
        "es",
        "s"
      ],
      [
        "e",
        "ct"
      ],
      [
        "i",
        "g"
      ],
      [
        "a",
        "m"
      ],
      [
        "d",
        "i"
      ],
      [
        "Ġ",
        "le"
      ],
      [
        "u",
        "m"
      ],
      [
        "Ġin",
        "t"
      ],
      [
        "Ġth",
        "at"
      ],
      [
        "Ġt",
        "e"
      ],
      [
        "Ġa",
        "l"
      ],
      [
        "i",
        "al"
      ],
      [
        "en",
        "ce"
      ],
      [
        "Ġa",
        "s"
      ],
      [
        "Ġyou",
        "r"
      ],
      [
        ":",
        "\\"
      ],
      [
        "p",
        "le"
      ],
      [
        "an",
        "d"
      ],
      [
        "Ġ",
        "en"
      ],
      [
        "a",
        "b"
      ],
      [
        "Ġm",
        "a"
      ],
      [
        "q",
        "u"
      ],
      [
        "v",
        "er"
      ],
      [
        "r",
        "i"
      ],
      [
        "Ġw",
        "h"
      ],
      [
        "Ġ",
        "A"
      ],
      [
        "o",
        "t"
      ],
      [
        "Ġb",
        "e"
      ],
      [
        "i",
        "ve"
      ],
      [
        "vi",
        "de"
      ],
      [
        "o",
        "g"
      ],
      [
        "Ġ",
        "="
      ],
      [
        "Ġ",
        "it"
      ],
      [
        "Ġm",
        "e"
      ],
      [
        "om",
        "e"
      ],
      [
        "o",
        "d"
      ],
      [
        "i",
        "z"
      ],
      [
        "Ġ",
        "v"
      ],
      [
        "Ġa",
        "re"
      ],
      [
        "ar",
        "n"
      ],
      [
        "a",
        "c"
      ],
      [
        "Ġle",
        "arn"
      ],
      [
        "it",
        "y"
      ],
      [
        "es",
        "t"
      ],
      [
        "Ġs",
        "u"
      ],
      [
        "'",
        "s"
      ],
      [
        "ĠĠ",
        "ĠĠ"
      ],
      [
        "Ġf",
        "e"
      ],
      [
        "Ġus",
        "ing"
      ],
      [
        "r",
        "it"
      ],
      [
        "a",
        "d"
      ],
      [
        "Ġcom",
        "m"
      ],
      [
        "Ġ",
        "un"
      ],
      [
        "a",
        "ct"
      ],
      [
        "i",
        "d"
      ],
      [
        "ur",
        "n"
      ],
      [
        "i",
        "v"
      ],
      [
        "el",
        "l"
      ],
      [
        "re",
        "s"
      ],
      [
        "or",
        "m"
      ],
      [
        "Ġs",
        "pe"
      ],
      [
        "p",
        "l"
      ],
      [
        "u",
        "di"
      ],
      [
        "in",
        "e"
      ],
      [
        "Ġre",
        "t"
      ],
      [
        "ĠI",
        "t"
      ],
      [
        "k",
        "ing"
      ],
      [
        "ou",
        "n"
      ],
      [
        "un",
        "ction"
      ],
      [
        "e",
        "m"
      ],
      [
        "Ġc",
        "h"
      ],
      [
        "T",
        "h"
      ],
      [
        "Ġf",
        "unction"
      ],
      [
        "Ġret",
        "urn"
      ],
      [
        "an",
        "ce"
      ],
      [
        "s",
        "e"
      ],
      [
        "ion",
        "s"
      ],
      [
        "Ġb",
        "y"
      ],
      [
        "Ġd",
        "at"
      ],
      [
        "i",
        "p"
      ],
      [
        "c",
        "ess"
      ],
      [
        ")",
        "\\"
      ],
      [
        "an",
        "t"
      ],
      [
        "f",
        "orm"
      ],
      [
        "Ġlearn",
        "ing"
      ],
      [
        "Ġimp",
        "ro"
      ],
      [
        "Ġre",
        "c"
      ],
      [
        "p",
        "er"
      ],
      [
        "Ġd",
        "o"
      ],
      [
        "u",
        "al"
      ],
      [
        "Ġl",
        "i"
      ],
      [
        "ro",
        "m"
      ],
      [
        "a",
        "in"
      ],
      [
        "Ġa",
        "udi"
      ],
      [
        ".",
        "\","
      ],
      [
        "er",
        "e"
      ],
      [
        "j",
        "ect"
      ],
      [
        "Ġs",
        "e"
      ],
      [
        "f",
        "er"
      ],
      [
        "C",
        "an"
      ],
      [
        "Ġw",
        "e"
      ],
      [
        "i",
        "r"
      ],
      [
        "k",
        "s"
      ],
      [
        "al",
        "l"
      ],
      [
        "ĠĠĠĠ",
        "ĠĠĠ"
      ],
      [
        "Ġdat",
        "a"
      ],
      [
        "i",
        "es"
      ],
      [
        "x",
        "t"
      ],
      [
        "Ġh",
        "el"
      ],
      [
        "Ġus",
        "e"
      ],
      [
        "Ġhel",
        "p"
      ],
      [
        "Ġc",
        "a"
      ],
      [
        "Ġw",
        "or"
      ],
      [
        "Y",
        "ou"
      ],
      [
        "g",
        "u"
      ],
      [
        "Ġm",
        "o"
      ],
      [
        "Ġimpro",
        "ve"
      ],
      [
        "Ġint",
        "er"
      ],
      [
        "Ġa",
        "b"
      ],
      [
        "vide",
        "o"
      ],
      [
        "r",
        "u"
      ],
      [
        "in",
        "t"
      ],
      [
        "Ġn",
        "e"
      ],
      [
        "an",
        "s"
      ],
      [
        "Ġin",
        "c"
      ],
      [
        "Ġcon",
        "t"
      ],
      [
        "rit",
        "e"
      ],
      [
        "Ġs",
        "ome"
      ],
      [
        "l",
        "d"
      ],
      [
        "Ġs",
        "y"
      ],
      [
        "ode",
        "l"
      ],
      [
        "Ġ",
        "\\"
      ],
      [
        "am",
        "ple"
      ],
      [
        "ic",
        "e"
      ],
      [
        "o",
        "c"
      ],
      [
        "Ġc",
        "re"
      ],
      [
        "Ġf",
        "rom"
      ],
      [
        ")",
        ":\\"
      ],
      [
        "Ġl",
        "ist"
      ],
      [
        "l",
        "u"
      ],
      [
        "um",
        "b"
      ],
      [
        "ab",
        "le"
      ],
      [
        "Ġa",
        "r"
      ],
      [
        "de",
        "f"
      ],
      [
        "Ġt",
        "r"
      ],
      [
        "ch",
        "n"
      ],
      [
        "Ġte",
        "chn"
      ],
      [
        "a",
        "g"
      ],
      [
        "act",
        "or"
      ],
      [
        "Ġ",
        "video"
      ],
      [
        "ig",
        "h"
      ],
      [
        "t",
        "ing"
      ],
      [
        "en",
        "d"
      ],
      [
        "Ġimp",
        "ort"
      ],
      [
        "il",
        "l"
      ],
      [
        "Ġa",
        "c"
      ],
      [
        "if",
        "ic"
      ],
      [
        "ac",
        "k"
      ],
      [
        "W",
        "rite"
      ],
      [
        "t",
        "er"
      ],
      [
        "Ġa",
        "p"
      ],
      [
        "Ġh",
        "a"
      ],
      [
        "o",
        "p"
      ],
      [
        "Ġc",
        "ode"
      ],
      [
        "Ġg",
        "o"
      ],
      [
        "Ġaudi",
        "o"
      ],
      [
        "f",
        "f"
      ],
      [
        "it",
        "ion"
      ],
      [
        "Ġm",
        "y"
      ],
      [
        "a",
        "re"
      ],
      [
        "Ġf",
        "actor"
      ],
      [
        "og",
        "n"
      ],
      [
        "Ġm",
        "odel"
      ],
      [
        "im",
        "e"
      ],
      [
        "Ġre",
        "s"
      ],
      [
        "e",
        "ch"
      ],
      [
        "Ġab",
        "out"
      ],
      [
        "Ġc",
        "al"
      ],
      [
        "Ġs",
        "h"
      ],
      [
        "Ġ",
        "S"
      ],
      [
        "at",
        "ing"
      ],
      [
        "oun",
        "d"
      ],
      [
        "Ġ",
        "r"
      ],
      [
        "b",
        "ject"
      ],
      [
        "n",
        "e"
      ],
      [
        "in",
        "d"
      ],
      [
        "ra",
        "m"
      ],
      [
        "Ġex",
        "ample"
      ],
      [
        "Ġ",
        "("
      ],
      [
        "ra",
        "ct"
      ],
      [
        "ol",
        "v"
      ],
      [
        "Ġcomm",
        "on"
      ],
      [
        "Ġun",
        "d"
      ],
      [
        "Ġw",
        "ay"
      ],
      [
        "et",
        "w"
      ],
      [
        "Ġli",
        "ke"
      ],
      [
        "Ġfactor",
        "ial"
      ],
      [
        "t",
        "e"
      ],
      [
        "a",
        "ch"
      ],
      [
        "c",
        "ul"
      ],
      [
        "an",
        "gu"
      ],
      [
        "ers",
        "t"
      ],
      [
        "Ġcom",
        "put"
      ],
      [
        "erst",
        "and"
      ],
      [
        "e",
        "p"
      ],
      [
        "ul",
        "t"
      ],
      [
        "b",
        "le"
      ],
      [
        "Ġ",
        "Th"
      ],
      [
        "Ġp",
        "l"
      ],
      [
        "c",
        "ri"
      ],
      [
        "le",
        "ment"
      ],
      [
        "pt",
        "ion"
      ],
      [
        "Ġp",
        "re"
      ],
      [
        "Ġpro",
        "vide"
      ],
      [
        "l",
        "ow"
      ],
      [
        "Ġa",
        "d"
      ],
      [
        "Ġd",
        "if"
      ],
      [
        "ra",
        "in"
      ],
      [
        "res",
        "s"
      ],
      [
        "Ġcal",
        "cul"
      ],
      [
        "Ġund",
        "erstand"
      ],
      [
        "Ġe",
        "ff"
      ],
      [
        "Ġn",
        "umb"
      ],
      [
        "'",
        "m"
      ],
      [
        "iz",
        "e"
      ],
      [
        "angu",
        "age"
      ],
      [
        "m",
        "s"
      ],
      [
        "Ġinc",
        "lu"
      ],
      [
        "l",
        "i"
      ],
      [
        "Ġte",
        "xt"
      ],
      [
        "o",
        "s"
      ],
      [
        "ation",
        "s"
      ],
      [
        ")",
        "\"}"
      ],
      [
        "Ġ",
        "F"
      ],
      [
        "Ġpro",
        "g"
      ],
      [
        "Ġpro",
        "cess"
      ],
      [
        "i",
        "le"
      ],
      [
        "Ġus",
        "ed"
      ],
      [
        "ig",
        "n"
      ],
      [
        "s",
        "o"
      ],
      [
        "ou",
        "ld"
      ],
      [
        "ar",
        "t"
      ],
      [
        "Ġ",
        "1"
      ],
      [
        "Ġa",
        "t"
      ],
      [
        "Ġ",
        "if"
      ],
      [
        "or",
        "d"
      ],
      [
        "th",
        "er"
      ],
      [
        "Ġfe",
        "el"
      ],
      [
        "Ġinclu",
        "de"
      ],
      [
        "ou",
        "r"
      ],
      [
        "i",
        "qu"
      ],
      [
        "Ġo",
        "ver"
      ],
      [
        "el",
        "y"
      ],
      [
        "Ġdif",
        "fer"
      ],
      [
        "Ġin",
        "v"
      ],
      [
        "p",
        "ort"
      ],
      [
        "Ġ",
        "qu"
      ],
      [
        "st",
        "em"
      ],
      [
        "or",
        "y"
      ],
      [
        "Ġe",
        "m"
      ],
      [
        "Ġl",
        "anguage"
      ],
      [
        "Ġc",
        "l"
      ],
      [
        "Ġde",
        "v"
      ],
      [
        "Ġspe",
        "ech"
      ],
      [
        "Ġha",
        "ve"
      ],
      [
        "?",
        "\"}"
      ],
      [
        "ou",
        "s"
      ],
      [
        "Ġma",
        "ch"
      ],
      [
        "Ġsu",
        "ch"
      ],
      [
        "Ġsy",
        "stem"
      ],
      [
        "g",
        "h"
      ],
      [
        "at",
        "h"
      ],
      [
        "ic",
        "al"
      ],
      [
        "ur",
        "al"
      ],
      [
        "Ġimp",
        "lement"
      ],
      [
        "Ġmo",
        "re"
      ],
      [
        "O",
        "ne"
      ],
      [
        "b",
        "ack"
      ],
      [
        "Ġt",
        "ime"
      ],
      [
        "Ġp",
        "ract"
      ],
      [
        "ou",
        "gh"
      ],
      [
        "Ġp",
        "ers"
      ],
      [
        "Ġthe",
        "ir"
      ],
      [
        "ed",
        "back"
      ],
      [
        "Ġ\\",
        "\""
      ],
      [
        "igh",
        "t"
      ],
      [
        "on",
        "e"
      ],
      [
        "us",
        "t"
      ],
      [
        "ul",
        "ar"
      ],
      [
        "Ġprog",
        "ram"
      ],
      [
        "g",
        "or"
      ],
      [
        "Ġde",
        "s"
      ],
      [
        "Ġma",
        "ke"
      ],
      [
        "'",
        ","
      ],
      [
        "Ġ",
        "ke"
      ],
      [
        "el",
        "f"
      ],
      [
        "Ġv",
        "is"
      ],
      [
        "Ġcalcul",
        "ate"
      ],
      [
        "er",
        "t"
      ],
      [
        "Ġal",
        "so"
      ],
      [
        "ĠA",
        "I"
      ],
      [
        "f",
        "ul"
      ],
      [
        "Ġimport",
        "ant"
      ],
      [
        "Ġp",
        "er"
      ],
      [
        "as",
        "s"
      ],
      [
        "Ġtechn",
        "iqu"
      ],
      [
        "gor",
        "ith"
      ],
      [
        "ing",
        "s"
      ],
      [
        "Ġfe",
        "edback"
      ],
      [
        "S",
        "ure"
      ],
      [
        "Ġt",
        "as"
      ],
      [
        "Ġs",
        "ort"
      ],
      [
        "Ġim",
        "age"
      ],
      [
        "ol",
        "og"
      ],
      [
        "Ġal",
        "gorith"
      ],
      [
        "Ġrec",
        "ogn"
      ],
      [
        "e",
        "c"
      ],
      [
        "Ġh",
        "um"
      ],
      [
        "a",
        "king"
      ],
      [
        "en",
        "er"
      ],
      [
        "i",
        "de"
      ],
      [
        "Ġm",
        "an"
      ],
      [
        "Ġe",
        "v"
      ],
      [
        "Ġeff",
        "ect"
      ],
      [
        "Ġ",
        "R"
      ],
      [
        "Ġs",
        "im"
      ],
      [
        "il",
        "ity"
      ],
      [
        "Ġtr",
        "ans"
      ],
      [
        "ent",
        "s"
      ],
      [
        "olv",
        "es"
      ],
      [
        "(",
        "'"
      ],
      [
        "a",
        "ke"
      ],
      [
        "n",
        "s"
      ],
      [
        "it",
        "e"
      ],
      [
        "d",
        "u"
      ],
      [
        "Ġ",
        "0"
      ],
      [
        "oun",
        "t"
      ],
      [
        "Ġs",
        "c"
      ],
      [
        "Ġo",
        "bject"
      ],
      [
        "al",
        "y"
      ],
      [
        "vi",
        "e"
      ],
      [
        "ure",
        "s"
      ],
      [
        "Ġint",
        "o"
      ],
      [
        "Ġwe",
        "b"
      ],
      [
        "Ġac",
        "c"
      ],
      [
        "Ġmach",
        "ine"
      ],
      [
        "Ġp",
        "r"
      ],
      [
        "Ġd",
        "is"
      ],
      [
        "Ġcre",
        "ate"
      ],
      [
        "Ġinv",
        "olves"
      ],
      [
        "Ġ",
        "C"
      ],
      [
        "en",
        "g"
      ],
      [
        "ic",
        "es"
      ],
      [
        "ic",
        "ation"
      ],
      [
        "i",
        "e"
      ],
      [
        "Ġs",
        "et"
      ],
      [
        "Ġwh",
        "ere"
      ],
      [
        "u",
        "p"
      ],
      [
        "Ġin",
        "form"
      ],
      [
        "c",
        "as"
      ],
      [
        "vi",
        "d"
      ],
      [
        "ar",
        "y"
      ],
      [
        "vi",
        "r"
      ],
      [
        "Ġ",
        "L"
      ],
      [
        "en",
        "s"
      ],
      [
        "S",
        "ome"
      ],
      [
        "a",
        "il"
      ],
      [
        "e",
        "en"
      ],
      [
        "p",
        "o"
      ],
      [
        "Ġb",
        "re"
      ],
      [
        "Ġprogram",
        "m"
      ],
      [
        "Ġ",
        "T"
      ],
      [
        "at",
        "es"
      ],
      [
        "ce",
        "pt"
      ],
      [
        "Ġen",
        "g"
      ],
      [
        "Ġspe",
        "c"
      ],
      [
        "Ġnumb",
        "er"
      ],
      [
        "Ġan",
        "aly"
      ],
      [
        "ar",
        "ch"
      ],
      [
        "Ġb",
        "etw"
      ],
      [
        "Ġcomm",
        "un"
      ],
      [
        "Th",
        "e"
      ],
      [
        "Ġper",
        "form"
      ],
      [
        "Ġbetw",
        "een"
      ],
      [
        "a",
        "k"
      ],
      [
        "v",
        "is"
      ],
      [
        "Ġ",
        "How"
      ],
      [
        "on",
        "g"
      ],
      [
        "Ġg",
        "ener"
      ],
      [
        "ment",
        "s"
      ],
      [
        "Ġke",
        "y"
      ],
      [
        "c",
        "is"
      ],
      [
        "Ġs",
        "k"
      ],
      [
        "ion",
        "al"
      ],
      [
        "Ġh",
        "and"
      ],
      [
        "Ġtas",
        "ks"
      ],
      [
        "d",
        "s"
      ],
      [
        "r",
        "y"
      ],
      [
        "Ġ",
        "M"
      ],
      [
        "b",
        "r"
      ],
      [
        "p",
        "on"
      ],
      [
        "ur",
        "ing"
      ],
      [
        "Ġ",
        "H"
      ],
      [
        "Ġ",
        "el"
      ],
      [
        "Ġc",
        "ol"
      ],
      [
        "Ġst",
        "r"
      ],
      [
        "Ġca",
        "p"
      ],
      [
        "Ġtechniqu",
        "es"
      ],
      [
        "(",
        ")"
      ],
      [
        "o",
        "re"
      ],
      [
        "Ġt",
        "rain"
      ],
      [
        "Ġst",
        "ory"
      ],
      [
        "Ġvis",
        "ual"
      ],
      [
        "Ġhum",
        "an"
      ],
      [
        "vie",
        "w"
      ],
      [
        "Ġ",
        "up"
      ],
      [
        "ct",
        "ive"
      ],
      [
        "ip",
        "s"
      ],
      [
        "Ġinform",
        "ation"
      ],
      [
        "ction",
        "s"
      ],
      [
        "Ġex",
        "pl"
      ],
      [
        "Ġ",
        "J"
      ],
      [
        "Ġre",
        "m"
      ],
      [
        "Ġas",
        "s"
      ],
      [
        "ag",
        "es"
      ],
      [
        "ill",
        "s"
      ],
      [
        "en",
        "c"
      ],
      [
        "Ġf",
        "ind"
      ],
      [
        "Ġpro",
        "ble"
      ],
      [
        "Ġdev",
        "el"
      ],
      [
        "Ġs",
        "m"
      ],
      [
        "Ġsk",
        "ills"
      ],
      [
        "Ġ",
        "*"
      ],
      [
        "en",
        "e"
      ],
      [
        "is",
        "h"
      ],
      [
        "Ġre",
        "g"
      ],
      [
        "Ġre",
        "al"
      ],
      [
        "Ġh",
        "ow"
      ],
      [
        "Ġwor",
        "k"
      ],
      [
        "a",
        "v"
      ],
      [
        "r",
        "ough"
      ],
      [
        "Ġp",
        "art"
      ],
      [
        "Ġcont",
        "ent"
      ],
      [
        "Ġpers",
        "on"
      ],
      [
        "if",
        "y"
      ],
      [
        "Ġal",
        "low"
      ],
      [
        "Ġdiffer",
        "ent"
      ],
      [
        "olog",
        "y"
      ],
      [
        "Ġrecogn",
        "ition"
      ],
      [
        "Ġspec",
        "ific"
      ],
      [
        "re",
        "e"
      ],
      [
        "or",
        "s"
      ],
      [
        "Ġthe",
        "m"
      ],
      [
        "Ġli",
        "br"
      ],
      [
        "Ġs",
        "ound"
      ],
      [
        "Ġth",
        "rough"
      ],
      [
        "per",
        "vis"
      ],
      [
        "Ġs",
        "o"
      ],
      [
        "Ġb",
        "as"
      ],
      [
        "Ġn",
        "ot"
      ],
      [
        "ol",
        "ut"
      ],
      [
        "Ġex",
        "per"
      ],
      [
        "Ġwh",
        "en"
      ],
      [
        "ell",
        "ig"
      ],
      [
        "te",
        "ction"
      ],
      [
        "pervis",
        "ed"
      ],
      [
        "t",
        "ect"
      ],
      [
        "Ġcon",
        "f"
      ],
      [
        "Ġint",
        "ellig"
      ],
      [
        "oc",
        "us"
      ],
      [
        "Ġel",
        "se"
      ],
      [
        "f",
        "t"
      ],
      [
        "i",
        "a"
      ],
      [
        "i",
        "ent"
      ],
      [
        "Ġ",
        "E"
      ],
      [
        "al",
        "s"
      ],
      [
        "ar",
        "i"
      ],
      [
        "ic",
        "s"
      ],
      [
        "Ġde",
        "tection"
      ],
      [
        "Ġcon",
        "cept"
      ],
      [
        "Ġintellig",
        "ence"
      ],
      [
        "p",
        "ro"
      ],
      [
        "Ġo",
        "ther"
      ],
      [
        "Ġb",
        "u"
      ],
      [
        "Ġcomput",
        "er"
      ],
      [
        "\\",
        "\":"
      ],
      [
        "Ġc",
        "onv"
      ],
      [
        "ct",
        "iv"
      ],
      [
        "Ġh",
        "e"
      ],
      [
        "id",
        "ent"
      ],
      [
        "Ġch",
        "all"
      ],
      [
        "Ġdevel",
        "op"
      ],
      [
        "i",
        "re"
      ],
      [
        "p",
        "re"
      ],
      [
        "Ġ",
        "ro"
      ],
      [
        "Ġp",
        "o"
      ],
      [
        "Ġb",
        "est"
      ],
      [
        "cri",
        "pt"
      ],
      [
        "I",
        "t"
      ],
      [
        "i",
        "b"
      ],
      [
        "p",
        "en"
      ],
      [
        "er",
        "v"
      ],
      [
        "it",
        "al"
      ],
      [
        "Ġan",
        "y"
      ],
      [
        "Ġpro",
        "ject"
      ],
      [
        "etw",
        "or"
      ],
      [
        "Ġ",
        "2"
      ],
      [
        "Ġs",
        "um"
      ],
      [
        "le",
        "ct"
      ],
      [
        "Ġcom",
        "ple"
      ],
      [
        "Ġit",
        "s"
      ],
      [
        "Ġv",
        "ari"
      ],
      [
        "Ġhelp",
        "s"
      ],
      [
        "Ġlist",
        "en"
      ],
      [
        "Ġsystem",
        "s"
      ],
      [
        "T",
        "o"
      ],
      [
        "n",
        "th"
      ],
      [
        "t",
        "ific"
      ],
      [
        "Ġ",
        "B"
      ],
      [
        "Ġ",
        "You"
      ],
      [
        "al",
        "u"
      ],
      [
        "Ġw",
        "ill"
      ],
      [
        "am",
        "e"
      ],
      [
        "Ġme",
        "et"
      ],
      [
        "res",
        "ent"
      ],
      [
        "Ġse",
        "arch"
      ],
      [
        "Ġcommun",
        "ication"
      ],
      [
        "tific",
        "ial"
      ],
      [
        "a",
        "ce"
      ],
      [
        "d",
        "ay"
      ],
      [
        "f",
        "it"
      ],
      [
        "Ġa",
        "ut"
      ],
      [
        "ic",
        "h"
      ],
      [
        "Ġprogramm",
        "ing"
      ],
      [
        "Ġchall",
        "eng"
      ],
      [
        "o",
        "o"
      ],
      [
        "it",
        "ies"
      ],
      [
        "Ġgo",
        "od"
      ],
      [
        "nth",
        "es"
      ],
      [
        "ar",
        "d"
      ],
      [
        "Ġre",
        "f"
      ],
      [
        "im",
        "port"
      ],
      [
        "Ġd",
        "ist"
      ],
      [
        "Ġn",
        "etwor"
      ],
      [
        "Ġen",
        "s"
      ],
      [
        "iz",
        "ation"
      ],
      [
        "Ġaudi",
        "ence"
      ],
      [
        "Ġunderstand",
        "ing"
      ],
      [
        "Ġtrain",
        "ing"
      ],
      [
        "Ġexper",
        "i"
      ],
      [
        "a",
        "p"
      ],
      [
        "at",
        "ed"
      ],
      [
        "Ġp",
        "at"
      ],
      [
        "Ġp",
        "ri"
      ],
      [
        "Ġf",
        "ocus"
      ],
      [
        "Ġw",
        "as"
      ],
      [
        "Ġg",
        "re"
      ],
      [
        "Ġen",
        "h"
      ],
      [
        "iz",
        "ing"
      ],
      [
        "l",
        "ing"
      ],
      [
        "s",
        "u"
      ],
      [
        "v",
        "ing"
      ],
      [
        "Ġ",
        "out"
      ],
      [
        "Ġw",
        "ell"
      ],
      [
        "Ġpro",
        "du"
      ],
      [
        "Ġwh",
        "ile"
      ],
      [
        "Ġ=",
        "="
      ],
      [
        "Ġap",
        "pl"
      ],
      [
        "Ġres",
        "pon"
      ],
      [
        "Ġset",
        "ting"
      ],
      [
        "n",
        "g"
      ],
      [
        "Ġt",
        "y"
      ],
      [
        "Ġs",
        "ign"
      ],
      [
        "Ġde",
        "ep"
      ],
      [
        "Ġad",
        "d"
      ],
      [
        "Ġc",
        "o"
      ],
      [
        "Ġon",
        "e"
      ],
      [
        "Ġne",
        "w"
      ],
      [
        "Ġac",
        "cess"
      ],
      [
        "Ġpr",
        "int"
      ],
      [
        "Ġcap",
        "ital"
      ],
      [
        "nthes",
        "is"
      ],
      [
        "b",
        "ut"
      ],
      [
        "Ġ",
        "+"
      ],
      [
        "le",
        "s"
      ],
      [
        "Ġto",
        "day"
      ],
      [
        "Ġre",
        "ad"
      ],
      [
        "Ġde",
        "cis"
      ],
      [
        "Ġtechn",
        "ology"
      ],
      [
        "Ġalgorith",
        "ms"
      ],
      [
        "b",
        "ot"
      ],
      [
        "l",
        "ab"
      ],
      [
        "l",
        "ine"
      ],
      [
        "w",
        "ord"
      ],
      [
        "Ġ",
        "vir"
      ],
      [
        "Ġc",
        "le"
      ],
      [
        "Ġn",
        "at"
      ],
      [
        "as",
        "e"
      ],
      [
        "Ġcon",
        "s"
      ],
      [
        "Ġproble",
        "m"
      ],
      [
        "Ġbas",
        "ed"
      ],
      [
        "c",
        "ial"
      ],
      [
        "t",
        "ual"
      ],
      [
        "w",
        "are"
      ],
      [
        "Ġ",
        "["
      ],
      [
        "Ġ",
        "j"
      ],
      [
        "Ġ",
        "ident"
      ],
      [
        "at",
        "ive"
      ],
      [
        "Ġm",
        "ult"
      ],
      [
        "Ġb",
        "ut"
      ],
      [
        "im",
        "ent"
      ],
      [
        "us",
        "e"
      ],
      [
        "Ġg",
        "r"
      ],
      [
        "Ġar",
        "tificial"
      ],
      [
        "Ġperform",
        "ance"
      ],
      [
        "=",
        "'"
      ],
      [
        "Ġs",
        "ent"
      ],
      [
        "pe",
        "t"
      ],
      [
        "Ġd",
        "uring"
      ],
      [
        "Ġh",
        "igh"
      ],
      [
        "Ġfeel",
        "ing"
      ],
      [
        "Ġweb",
        "s"
      ],
      [
        "a",
        "vi"
      ],
      [
        "b",
        "er"
      ],
      [
        "Ġt",
        "ra"
      ],
      [
        "Ġc",
        "all"
      ],
      [
        "Ġth",
        "is"
      ],
      [
        "an",
        "c"
      ],
      [
        "an",
        "ge"
      ],
      [
        "Ġp",
        "resent"
      ],
      [
        "Ġw",
        "rit"
      ],
      [
[...]
